{
  "\n</w>": 40477,
  "!": 29,
  "!</w>": 267,
  "\"": 6,
  "\"</w>": 244,
  "#": 47,
  "#</w>": 285,
  "$": 51,
  "$</w>": 289,
  "%": 59,
  "%</w>": 297,
  "&": 58,
  "&</w>": 296,
  "'": 18,
  "''</w>": 6725,
  "'</w>": 256,
  "'an</w>": 38305,
  "'bout</w>": 16380,
  "'cause</w>": 9038,
  "'cos</w>": 33470,
  "'d</w>": 656,
  "'em</w>": 5961,
  "'ilyn</w>": 38182,
  "'l</w>": 11128,
  "'ll</w>": 804,
  "'m</w>": 719,
  "'n</w>": 12902,
  "'r</w>": 30778,
  "'ra</w>": 37937,
  "'re</w>": 761,
  "'s": 38304,
  "'s</w>": 535,
  "'t</w>": 537,
  "'u": 34660,
  "'ve</w>": 880,
  "(": 38,
  "(</w>": 276,
  ")": 37,
  ")</w>": 275,
  "*": 31,
  "*</w>": 269,
  "+": 68,
  "+</w>": 306,
  ",": 2,
  ",</w>": 240,
  "-": 22,
  "--": 3700,
  "----": 5792,
  "--------": 9333,
  "----------------": 15371,
  "--------------------------------": 26012,
  "----</w>": 31753,
  "---</w>": 11395,
  "--</w>": 2383,
  "-</w>": 260,
  ".": 1,
  ".'": 34111,
  "..": 726,
  "....": 8327,
  "........": 16553,
  "................": 31329,
  ".........</w>": 39406,
  "........</w>": 39202,
  ".......</w>": 25873,
  "......</w>": 8761,
  ".....</w>": 13061,
  "....</w>": 3101,
  "...</w>": 749,
  "..</w>": 2756,
  ".00</w>": 25088,
  ".22</w>": 36704,
  ".38</w>": 33803,
  ".45</w>": 28151,
  ".</w>": 239,
  ".@</w>": 26798,
  ".^</w>": 36839,
  ".a.</w>": 10311,
  ".c.</w>": 10578,
  ".com</w>": 7481,
  ".d.</w>": 38684,
  ".m.</w>": 5668,
  ".s.</w>": 8182,
  ".‖</w>": 29697,
  "/": 40,
  "//</w>": 11240,
  "/</w>": 278,
  "0": 48,
  "0.": 35868,
  "00": 12354,
  "000": 33669,
  "000</w>": 7397,
  "007</w>": 37114,
  "00</w>": 3597,
  "01</w>": 36838,
  "0</w>": 286,
  "0s</w>": 10283,
  "1": 39,
  "1.": 20343,
  "10": 8582,
  "10.": 40009,
  "1000</w>": 33469,
  "100</w>": 11477,
  "101</w>": 25572,
  "10:": 27987,
  "10:00</w>": 34576,
  "10</w>": 5895,
  "10th</w>": 38488,
  "11": 13726,
  "11:": 25562,
  "11</w>": 6682,
  "12": 13103,
  "120</w>": 32548,
  "12:": 30650,
  "12</w>": 6642,
  "12th</w>": 38303,
  "13": 16670,
  "130</w>": 36782,
  "13</w>": 7877,
  "13th</w>": 40314,
  "14": 15582,
  "14</w>": 7765,
  "15": 14792,
  "150</w>": 24719,
  "15</w>": 7648,
  "15th</w>": 39679,
  "16": 14245,
  "16</w>": 9509,
  "17": 12568,
  "17</w>": 9756,
  "17th</w>": 39478,
  "18": 8083,
  "180": 31736,
  "180</w>": 30713,
  "18</w>": 9982,
  "18th</w>": 36877,
  "19": 3814,
  "190": 28389,
  "1945</w>": 39477,
  "195": 16531,
  "1950</w>": 40225,
  "1950s</w>": 34721,
  "196": 12986,
  "1960</w>": 40008,
  "1960s</w>": 40188,
  "1963</w>": 36944,
  "1968</w>": 39330,
  "1969</w>": 40187,
  "197": 12251,
  "1970</w>": 35002,
  "1970s</w>": 38381,
  "198": 11555,
  "1980</w>": 35843,
  "1984</w>": 34625,
  "1985</w>": 35821,
  "1988</w>": 38827,
  "1989</w>": 38795,
  "199": 12179,
  "1990</w>": 32864,
  "1992</w>": 38487,
  "1999</w>": 39329,
  "19</w>": 11252,
  "19th</w>": 34575,
  "1:": 27028,
  "1</w>": 277,
  "1st</w>": 18268,
  "2": 42,
  "2.": 22961,
  "20": 4804,
  "200": 11291,
  "2000</w>": 28654,
  "2001</w>": 36191,
  "2002</w>": 39801,
  "2003</w>": 39601,
  "2006</w>": 39552,
  "2007</w>": 37935,
  "2008</w>": 30837,
  "2009</w>": 29115,
  "200</w>": 17594,
  "2010</w>": 27812,
  "2011</w>": 21830,
  "2012</w>": 17738,
  "2013</w>": 16902,
  "2014</w>": 16144,
  "2015</w>": 38105,
  "20</w>": 7379,
  "20s</w>": 40186,
  "20th</w>": 33443,
  "21</w>": 11043,
  "21st</w>": 32024,
  "22</w>": 10393,
  "23": 38907,
  "23</w>": 11768,
  "24</w>": 10361,
  "250</w>": 29848,
  "25</w>": 10353,
  "26": 25629,
  "26</w>": 13963,
  "27</w>": 13609,
  "28": 27277,
  "28</w>": 14423,
  "29</w>": 14486,
  "2:": 26797,
  "2:00</w>": 37936,
  "2</w>": 280,
  "2nd</w>": 22473,
  "3": 43,
  "3.": 19243,
  "3.0</w>": 31864,
  "30": 18688,
  "300</w>": 20876,
  "30</w>": 6828,
  "30s</w>": 37036,
  "31</w>": 15870,
  "32</w>": 14814,
  "33</w>": 15489,
  "34</w>": 17990,
  "35</w>": 14635,
  "360</w>": 39551,
  "36</w>": 18462,
  "37</w>": 18018,
  "38</w>": 15931,
  "39</w>": 19755,
  "3:": 25069,
  "3:00</w>": 38346,
  "3</w>": 281,
  "3d</w>": 38273,
  "3rd</w>": 23952,
  "3s</w>": 35901,
  "4": 44,
  "4.": 26124,
  "40": 24744,
  "400</w>": 26641,
  "40</w>": 11083,
  "412</w>": 32623,
  "41</w>": 20558,
  "42</w>": 18905,
  "43</w>": 20604,
  "44</w>": 18837,
  "45": 38380,
  "45</w>": 11421,
  "46</w>": 21925,
  "47</w>": 16688,
  "48</w>": 20986,
  "49</w>": 23443,
  "4:": 26640,
  "4:00</w>": 40431,
  "4</w>": 282,
  "4th</w>": 22858,
  "5": 46,
  "5'": 39519,
  "5.": 33468,
  "50": 28852,
  "500</w>": 16708,
  "50</w>": 8393,
  "51</w>": 24040,
  "52</w>": 25040,
  "53</w>": 26457,
  "54</w>": 26961,
  "55": 31446,
  "55</w>": 20218,
  "56</w>": 26836,
  "57</w>": 23339,
  "58</w>": 27751,
  "59</w>": 27866,
  "5:": 26313,
  "5:00</w>": 39637,
  "5</w>": 284,
  "5th</w>": 24753,
  "6": 49,
  "6.": 33337,
  "600</w>": 32401,
  "60</w>": 15936,
  "61</w>": 32132,
  "62</w>": 29656,
  "63</w>": 33154,
  "64</w>": 27457,
  "655": 38224,
  "65533</w>": 38345,
  "65</w>": 23221,
  "66</w>": 26858,
  "67</w>": 28888,
  "68</w>": 31952,
  "69</w>": 33361,
  "6:": 25144,
  "6:00</w>": 37524,
  "6</w>": 287,
  "6th</w>": 35716,
  "7": 50,
  "7.": 32048,
  "700</w>": 37000,
  "70</w>": 19242,
  "71</w>": 32965,
  "72</w>": 30220,
  "73</w>": 33073,
  "74</w>": 34604,
  "75</w>": 22328,
  "76</w>": 30074,
  "77</w>": 29114,
  "78</w>": 24210,
  "79</w>": 33932,
  "7:": 24921,
  "7:00</w>": 36127,
  "7:30</w>": 37592,
  "7</w>": 288,
  "7th</w>": 27205,
  "8": 54,
  "8.": 37629,
  "800</w>": 32702,
  "80</w>": 17164,
  "80s</w>": 36545,
  "81</w>": 34534,
  "82</w>": 34146,
  "83</w>": 34110,
  "84</w>": 36737,
  "85</w>": 31243,
  "86</w>": 35962,
  "87</w>": 32649,
  "88</w>": 24781,
  "89</w>": 32372,
  "8:": 24868,
  "8:00</w>": 37073,
  "8</w>": 292,
  "8th</w>": 34253,
  "9": 53,
  "9.": 29770,
  "90</w>": 18711,
  "911</w>": 18016,
  "91</w>": 38794,
  "92</w>": 32964,
  "93</w>": 32963,
  "94</w>": 37824,
  "95</w>": 23205,
  "96</w>": 37384,
  "978</w>": 40224,
  "97</w>": 35820,
  "98</w>": 31937,
  "99</w>": 21106,
  "9:": 24962,
  "9:00</w>": 33442,
  "9</w>": 291,
  "9th</w>": 30542,
  ":": 33,
  ":0": 17664,
  ":00</w>": 10547,
  ":30</w>": 12614,
  ":</w>": 271,
  ";": 32,
  ";</w>": 270,
  "<": 57,
  "<</w>": 295,
  "<unk>": 0,
  "=": 65,
  "=</w>": 303,
  ">": 52,
  "></w>": 290,
  "?": 19,
  "?</w>": 257,
  "@": 67,
  "@</w>": 305,
  "@g": 36380,
  "@gmail.com</w>": 36703,
  "[": 55,
  "[</w>": 293,
  "\\": 127,
  "\\</w>": 365,
  "]": 56,
  "]</w>": 294,
  "^": 79,
  "^</w>": 317,
  "_": 41,
  "_</w>": 279,
  "`": 61,
  "`</w>": 299,
  "`s</w>": 36582,
  "`t</w>": 38597,
  "a": 8,
  "a'": 21724,
  "a.": 12572,
  "a.</w>": 7867,
  "a.j.</w>": 26732,
  "a.m.</w>": 8096,
  "a</w>": 246,
  "aa": 7325,
  "aa</w>": 16695,
  "aaa": 33315,
  "aaaa": 18864,
  "aakir</w>": 25922,
  "aal</w>": 30669,
  "aan</w>": 32832,
  "aar": 6608,
  "aaron</w>": 6922,
  "ab": 570,
  "ab</w>": 17444,
  "aba</w>": 39800,
  "aback</w>": 11964,
  "aband": 4190,
  "abandon": 26296,
  "abandon</w>": 9746,
  "abandoned</w>": 5488,
  "abandoning</w>": 17737,
  "abandonment</w>": 27903,
  "abas</w>": 34229,
  "abashed</w>": 35467,
  "abated</w>": 30627,
  "abbas</w>": 35842,
  "abbess</w>": 24920,
  "abbey</w>": 11397,
  "abbi</w>": 32457,
  "abbie</w>": 21595,
  "abbot</w>": 17826,
  "abbott</w>": 28090,
  "abbrevi": 35586,
  "abby</w>": 4737,
  "abc</w>": 37072,
  "abdomen</w>": 11023,
  "abdomin": 36126,
  "abdominal</w>": 40098,
  "abdu": 11653,
  "abduc": 32400,
  "abduct</w>": 37035,
  "abducted</w>": 18663,
  "abduction</w>": 23106,
  "abdul</w>": 34144,
  "abe": 29769,
  "abe</w>": 10237,
  "abeke</w>": 34011,
  "abel</w>": 23169,
  "aber": 20342,
  "abernathy</w>": 31653,
  "aberr": 38872,
  "abhor": 27381,
  "abhorrent</w>": 40348,
  "abi": 7786,
  "abi</w>": 33235,
  "abide</w>": 21659,
  "abiding</w>": 30600,
  "abigail</w>": 10173,
  "abilities</w>": 6837,
  "ability</w>": 3371,
  "abitch</w>": 25910,
  "abject</w>": 30824,
  "ablaze</w>": 22036,
  "able</w>": 817,
  "ables</w>": 17215,
  "ablo</w>": 20038,
  "ably</w>": 3346,
  "abnegation</w>": 33888,
  "abner</w>": 24847,
  "abnormal</w>": 27495,
  "abnormally</w>": 35559,
  "abo": 1806,
  "aboard</w>": 8549,
  "abode</w>": 27276,
  "abomin": 28054,
  "abomination</w>": 23536,
  "abond</w>": 33957,
  "aboo</w>": 29316,
  "abor": 7316,
  "abort</w>": 33421,
  "aborted</w>": 37694,
  "abortion</w>": 21768,
  "about</w>": 670,
  "above": 40146,
  "above</w>": 1952,
  "abra": 9922,
  "abra</w>": 19539,
  "abraham</w>": 13575,
  "abram</w>": 31178,
  "abrams</w>": 32591,
  "abrasive</w>": 37627,
  "abrea": 30823,
  "abreast</w>": 30897,
  "abreon</w>": 27100,
  "abroad</w>": 19949,
  "abrup": 4860,
  "abrupt</w>": 11710,
  "abruptly</w>": 4898,
  "abs": 7802,
  "abs</w>": 12491,
  "absen": 8072,
  "absence</w>": 7963,
  "absent": 21208,
  "absent</w>": 12181,
  "absently</w>": 9494,
  "absentmindedly</w>": 23514,
  "absolu": 3090,
  "absolute</w>": 7565,
  "absolutely</w>": 3642,
  "absor": 6349,
  "absorb</w>": 13829,
  "absorbed</w>": 9521,
  "absorbing</w>": 17413,
  "absorption</w>": 39599,
  "abstr": 17251,
  "abstract</w>": 20719,
  "absur": 9731,
  "absurd</w>": 12151,
  "absurdity</w>": 25961,
  "absurdly</w>": 27830,
  "abu": 6973,
  "abu</w>": 31935,
  "abun": 13915,
  "abundance</w>": 19505,
  "abundant</w>": 26347,
  "abundantly</w>": 36661,
  "abuse</w>": 11068,
  "abused</w>": 15723,
  "abusing</w>": 32023,
  "abusive</w>": 23513,
  "aby": 13710,
  "abyss</w>": 15985,
  "ac": 508,
  "ac</w>": 5006,
  "aca": 37297,
  "acacia</w>": 35466,
  "acade": 7430,
  "academic</w>": 15345,
  "academics</w>": 38595,
  "academy</w>": 9974,
  "acc": 1765,
  "acce": 13143,
  "acceler": 8673,
  "accelerate</w>": 29959,
  "accelerated</w>": 15660,
  "accelerating</w>": 25895,
  "acceleration</w>": 27968,
  "accelerator</w>": 19821,
  "accen": 17647,
  "accent</w>": 6281,
  "accented</w>": 18930,
  "accents</w>": 23442,
  "accentu": 19550,
  "accentuated</w>": 26421,
  "accep": 3199,
  "accept</w>": 3859,
  "acceptable</w>": 10391,
  "acceptance</w>": 11288,
  "accepted</w>": 4617,
  "accepting</w>": 9412,
  "accepts</w>": 25458,
  "access": 18333,
  "access</w>": 5109,
  "accessed</w>": 27177,
  "accessible</w>": 19892,
  "accessing</w>": 39275,
  "accessories</w>": 25685,
  "accessory</w>": 30857,
  "acci": 3496,
  "acciden": 8455,
  "accident</w>": 4437,
  "accidental</w>": 19716,
  "accidentally</w>": 9837,
  "accidently</w>": 31445,
  "accidents</w>": 17061,
  "accli": 38379,
  "acco": 23157,
  "acco</w>": 13751,
  "accommo": 9827,
  "accommodate</w>": 15424,
  "accommodating</w>": 28225,
  "accommodation</w>": 26796,
  "accommodations</w>": 24622,
  "accomp": 4147,
  "accompan": 16291,
  "accompani": 8222,
  "accompanied</w>": 8235,
  "accompanim": 38793,
  "accompaniment</w>": 39274,
  "accompany</w>": 11904,
  "accompanying</w>": 17492,
  "accomplice</w>": 24267,
  "accomplish</w>": 11145,
  "accomplished</w>": 10336,
  "accomplishing</w>": 36060,
  "accomplishment</w>": 22544,
  "accomplishments</w>": 27674,
  "accor": 4367,
  "accord</w>": 15849,
  "accordance</w>": 32570,
  "according</w>": 5175,
  "accordingly</w>": 20233,
  "accords</w>": 39201,
  "accosted</w>": 31327,
  "accoun": 6464,
  "account</w>": 5510,
  "accountable</w>": 28811,
  "accountant</w>": 19102,
  "accountants</w>": 40145,
  "accounted</w>": 20749,
  "accounting</w>": 19931,
  "accounts</w>": 10514,
  "accu": 5426,
  "accumu": 27083,
  "accumulate</w>": 39968,
  "accumulated</w>": 20647,
  "accumulating</w>": 38683,
  "accur": 7414,
  "accuracy</w>": 18914,
  "accurate</w>": 10097,
  "accurately</w>": 17742,
  "accursed</w>": 34251,
  "accusation</w>": 13205,
  "accusations</w>": 16630,
  "accusatory</w>": 27998,
  "accuse</w>": 18233,
  "accused</w>": 9009,
  "accusing</w>": 14645,
  "accusingly</w>": 23926,
  "accustom": 9276,
  "accustomed</w>": 9291,
  "ace": 3982,
  "ace</w>": 682,
  "aced</w>": 1518,
  "aceful</w>": 5839,
  "acefully</w>": 9373,
  "aceous</w>": 38639,
  "aces</w>": 4715,
  "ach": 931,
  "ach</w>": 902,
  "acha": 14393,
  "achable</w>": 22554,
  "ache</w>": 3613,
  "ached</w>": 1221,
  "achel</w>": 3221,
  "acher</w>": 3705,
  "acheron</w>": 13674,
  "achers</w>": 7894,
  "aches</w>": 4079,
  "achi": 5871,
  "achi</w>": 17438,
  "achiev": 17536,
  "achieve</w>": 11382,
  "achieved</w>": 13633,
  "achievement</w>": 23181,
  "achievements</w>": 32456,
  "achieving</w>": 26564,
  "achil": 27380,
  "achilles</w>": 27709,
  "aching</w>": 2261,
  "achingly</w>": 26931,
  "achment</w>": 14342,
  "achs</w>": 23775,
  "achy</w>": 21276,
  "aci": 9074,
  "acia</w>": 21333,
  "acid</w>": 11800,
  "acidic</w>": 34278,
  "acies</w>": 22949,
  "acing</w>": 3270,
  "acious</w>": 16398,
  "aciously</w>": 38302,
  "acity</w>": 9146,
  "ack": 1170,
  "ack</w>": 602,
  "acked</w>": 1792,
  "acker</w>": 9282,
  "ackers</w>": 12122,
  "acking</w>": 3175,
  "ackle</w>": 26902,
  "acknowle": 6352,
  "acknowledg": 12381,
  "acknowledge</w>": 9413,
  "acknowledged</w>": 9744,
  "acknowledgement</w>": 22565,
  "acknowledgements</w>": 37626,
  "acknowledges</w>": 39476,
  "acknowledging</w>": 17667,
  "acknowledgment</w>": 18767,
  "acks</w>": 2662,
  "acle</w>": 4777,
  "acled</w>": 31069,
  "acles</w>": 7509,
  "acne</w>": 31131,
  "aco": 28946,
  "aco</w>": 32863,
  "acoly": 22598,
  "acolyte</w>": 28994,
  "acolytes</w>": 36481,
  "acon</w>": 10192,
  "acons</w>": 34080,
  "acorn</w>": 34512,
  "acou": 25997,
  "acoustic</w>": 32862,
  "acqu": 8661,
  "acqua": 8357,
  "acquaint": 10990,
  "acquaintance</w>": 14141,
  "acquaintances</w>": 19512,
  "acquainted</w>": 15773,
  "acqui": 21956,
  "acquie": 21541,
  "acquiesced</w>": 36379,
  "acquiescence</w>": 35690,
  "acquire</w>": 18009,
  "acquired</w>": 12161,
  "acquiring</w>": 29012,
  "acquisition</w>": 27902,
  "acre</w>": 24344,
  "acres</w>": 14584,
  "acrid</w>": 21804,
  "acro": 31177,
  "acrob": 39598,
  "across</w>": 1223,
  "acs</w>": 34079,
  "act</w>": 1486,
  "acted</w>": 3181,
  "acti": 1727,
  "actic</w>": 18406,
  "acting</w>": 3824,
  "action</w>": 2105,
  "actions</w>": 4533,
  "activ": 6321,
  "activate</w>": 20539,
  "activated</w>": 13957,
  "activating</w>": 35997,
  "active</w>": 4613,
  "actively</w>": 18644,
  "activities</w>": 9171,
  "activity</w>": 6997,
  "actor</w>": 11394,
  "actors</w>": 15543,
  "actress</w>": 16210,
  "actresses</w>": 38104,
  "acts</w>": 6675,
  "actu": 26074,
  "actual</w>": 5860,
  "actuality</w>": 33931,
  "actually</w>": 1629,
  "acu": 6119,
  "acute</w>": 17261,
  "acutely</w>": 19696,
  "acy</w>": 3063,
  "ad": 874,
  "ad</w>": 1488,
  "ada": 7950,
  "ada</w>": 7696,
  "adair</w>": 31837,
  "adalynn</w>": 40049,
  "adam": 15268,
  "adam</w>": 3196,
  "adaman": 24030,
  "adamant</w>": 17535,
  "adamantly</w>": 25716,
  "adams</w>": 14749,
  "adan</w>": 17393,
  "adap": 23251,
  "adapt</w>": 23424,
  "adapted</w>": 25661,
  "adar": 39887,
  "adara</w>": 26930,
  "adas</w>": 29655,
  "add</w>": 4846,
  "added</w>": 2318,
  "addic": 7437,
  "addict</w>": 18415,
  "addicted</w>": 16838,
  "addiction</w>": 15139,
  "addictive</w>": 24371,
  "addicts</w>": 28434,
  "addie</w>": 19258,
  "adding</w>": 7533,
  "addison</w>": 18367,
  "addition</w>": 8616,
  "additional</w>": 8947,
  "additionally</w>": 39475,
  "additions</w>": 35500,
  "addled</w>": 32701,
  "addolgar</w>": 28831,
  "address</w>": 5039,
  "addressed</w>": 9533,
  "addresses</w>": 20244,
  "addressing</w>": 15647,
  "addri</w>": 37591,
  "adds</w>": 10220,
  "addy</w>": 16522,
  "ade": 5227,
  "ade</w>": 4481,
  "aded</w>": 22271,
  "adel": 19637,
  "adel</w>": 13607,
  "adela</w>": 28192,
  "adelaide</w>": 26346,
  "adele</w>": 13191,
  "aden</w>": 9778,
  "adep": 39405,
  "adept</w>": 20278,
  "adequ": 11141,
  "adequate</w>": 13229,
  "adequately</w>": 27176,
  "aders</w>": 19937,
  "ades</w>": 14140,
  "adh": 36252,
  "adher": 33887,
  "adi</w>": 26666,
  "adic": 22728,
  "adic</w>": 28557,
  "adin</w>": 8552,
  "adina</w>": 36781,
  "ading</w>": 24950,
  "adjac": 14648,
  "adjacent</w>": 14668,
  "adjoining</w>": 18491,
  "adjour": 31192,
  "adjourned</w>": 38062,
  "adju": 5715,
  "adjust": 16055,
  "adjust</w>": 9806,
  "adjusted</w>": 7485,
  "adjusting</w>": 12226,
  "adjustment</w>": 24242,
  "adjustments</w>": 25112,
  "adjusts</w>": 30305,
  "adler</w>": 29290,
  "adley</w>": 33855,
  "admi": 8723,
  "admin</w>": 35532,
  "admini": 8992,
  "administer</w>": 30193,
  "administered</w>": 26212,
  "administr": 10215,
  "administration</w>": 16629,
  "administrative</w>": 22754,
  "administrator</w>": 22221,
  "administrators</w>": 38682,
  "admir": 5315,
  "admirable</w>": 22133,
  "admirably</w>": 39967,
  "admiral</w>": 11159,
  "admiration</w>": 12113,
  "admire</w>": 10418,
  "admired</w>": 9742,
  "admirer</w>": 32156,
  "admirers</w>": 32547,
  "admiring</w>": 11753,
  "admiringly</w>": 36451,
  "admission</w>": 13026,
  "admissions</w>": 38486,
  "admit": 3632,
  "admit</w>": 3239,
  "admits</w>": 21400,
  "admittance</w>": 38638,
  "admitted</w>": 4142,
  "admittedly</w>": 18877,
  "admitting</w>": 13106,
  "admoni": 17132,
  "admonished</w>": 21649,
  "ado": 6030,
  "ado</w>": 10917,
  "adobe</w>": 35440,
  "adol": 14192,
  "adole": 17708,
  "adolescence</w>": 36412,
  "adolescent</w>": 22107,
  "adolf</w>": 33903,
  "adolin</w>": 17632,
  "adon</w>": 37199,
  "adonis</w>": 32861,
  "adop": 20995,
  "adopt</w>": 19754,
  "adopted</w>": 11087,
  "adopting</w>": 31560,
  "adoption</w>": 20786,
  "adoptive</w>": 31735,
  "ador": 6767,
  "ador</w>": 19626,
  "adorable</w>": 11550,
  "adorably</w>": 39886,
  "adoration</w>": 21562,
  "adore</w>": 20021,
  "adored</w>": 14073,
  "adores</w>": 33498,
  "adoring</w>": 26111,
  "adorned</w>": 13816,
  "adorning</w>": 36480,
  "adors</w>": 34849,
  "adren": 7177,
  "adrenalin</w>": 26485,
  "adrenaline</w>": 7695,
  "adri": 10421,
  "adri</w>": 30218,
  "adria</w>": 33554,
  "adrian</w>": 6376,
  "adriana</w>": 30442,
  "adriane</w>": 34573,
  "adrien</w>": 26484,
  "adrienne</w>": 29695,
  "adrift</w>": 27342,
  "ads</w>": 12077,
  "adul": 16731,
  "adult</w>": 7564,
  "adulter": 27967,
  "adulterated</w>": 33902,
  "adulthood</w>": 29405,
  "adults</w>": 9312,
  "adv": 3946,
  "advan": 3861,
  "advanc": 28161,
  "advance</w>": 9479,
  "advanced</w>": 7971,
  "advancement</w>": 31352,
  "advances</w>": 18788,
  "advancing</w>": 15216,
  "advantage</w>": 5090,
  "advantages</w>": 20243,
  "adven": 5826,
  "advent</w>": 39009,
  "adventure</w>": 8189,
  "adventurer</w>": 33826,
  "adventurers</w>": 36660,
  "adventures</w>": 13928,
  "adventurous</w>": 23035,
  "adver": 15261,
  "adversaries</w>": 33072,
  "adversary</w>": 21467,
  "adverti": 10423,
  "advertise</w>": 33210,
  "advertised</w>": 27441,
  "advertisement</w>": 30135,
  "advertisements</w>": 37230,
  "advertising</w>": 16402,
  "advi": 6188,
  "advice</w>": 5553,
  "advise</w>": 15370,
  "advised</w>": 10700,
  "adviser</w>": 34659,
  "advising</w>": 34355,
  "advisor</w>": 20918,
  "advisors</w>": 27440,
  "advo": 19703,
  "advocate</w>": 25551,
  "ady</w>": 25781,
  "ae": 13329,
  "ae</w>": 16496,
  "aedan</w>": 27178,
  "aedion</w>": 37198,
  "aeg": 39849,
  "ael": 37985,
  "ael</w>": 33857,
  "aen": 38531,
  "aer": 13654,
  "aeri": 22376,
  "aeria</w>": 38457,
  "aerial</w>": 24551,
  "aerlid</w>": 24975,
  "aero": 31242,
  "aeron</w>": 17508,
  "aes": 40430,
  "aes</w>": 22623,
  "aesthetic</w>": 36156,
  "aeth": 30306,
  "aether</w>": 35900,
  "aetheric</w>": 39474,
  "af": 752,
  "afar</w>": 19384,
  "afe</w>": 33153,
  "aff": 38344,
  "affair</w>": 7808,
  "affairs</w>": 11031,
  "affec": 3616,
  "affect</w>": 9657,
  "affected</w>": 7493,
  "affecting</w>": 19759,
  "affection": 13200,
  "affection</w>": 8104,
  "affectionate</w>": 18184,
  "affectionately</w>": 20835,
  "affections</w>": 26249,
  "affects</w>": 22705,
  "affi": 40429,
  "affili": 25541,
  "affiliation</w>": 39404,
  "affin": 26110,
  "affinity</w>": 27422,
  "affir": 13358,
  "affirm": 21022,
  "affirm</w>": 39848,
  "affirmation</w>": 30473,
  "affirmative</w>": 23319,
  "affirmed</w>": 28371,
  "affixed</w>": 26134,
  "affli": 19020,
  "afflicted</w>": 29303,
  "affliction</w>": 30217,
  "affluent</w>": 35312,
  "affor": 16823,
  "afford</w>": 5527,
  "afforded</w>": 20199,
  "affront</w>": 34658,
  "affronted</w>": 32546,
  "afgh": 18948,
  "afghan</w>": 28333,
  "afghanistan</w>": 20348,
  "afire</w>": 39273,
  "aflame</w>": 33441,
  "aflo": 25861,
  "afloat</w>": 25894,
  "afoot</w>": 29696,
  "afore": 31241,
  "afore</w>": 32745,
  "aforementioned</w>": 35960,
  "afraid</w>": 2132,
  "afri": 7919,
  "africa</w>": 11323,
  "african</w>": 13725,
  "aft</w>": 22172,
  "after": 2208,
  "after</w>": 861,
  "afterglow</w>": 38181,
  "afterlife</w>": 20334,
  "aftermath</w>": 17373,
  "afternoon</w>": 2795,
  "afternoons</w>": 21032,
  "aftershave</w>": 27014,
  "aftershocks</w>": 32155,
  "afterthought</w>": 22553,
  "afterward</w>": 7569,
  "afterwards</w>": 9401,
  "ag": 601,
  "ag</w>": 21234,
  "aga": 721,
  "aga</w>": 22492,
  "again": 1004,
  "again</w>": 833,
  "against</w>": 1006,
  "agan</w>": 17813,
  "agape</w>": 23180,
  "agar</w>": 31082,
  "agatha</w>": 18938,
  "agbu</w>": 37153,
  "age</w>": 1028,
  "aged</w>": 2020,
  "ageless</w>": 34456,
  "agencies</w>": 21422,
  "agency</w>": 9311,
  "agenda</w>": 12690,
  "agent</w>": 4475,
  "agents</w>": 7295,
  "ages</w>": 2868,
  "agged</w>": 5696,
  "aggie</w>": 31083,
  "agging</w>": 10710,
  "aggra": 29093,
  "aggrav": 17206,
  "aggravated</w>": 23156,
  "aggravating</w>": 34173,
  "aggravation</w>": 29113,
  "aggre": 7736,
  "aggression</w>": 16881,
  "aggressive</w>": 11299,
  "aggressively</w>": 22443,
  "agh</w>": 17681,
  "aghast</w>": 19936,
  "agile</w>": 25496,
  "agility</w>": 25261,
  "aging</w>": 10236,
  "agit": 8612,
  "agitated</w>": 11584,
  "agitation</w>": 16657,
  "aglow</w>": 34048,
  "agne</w>": 8003,
  "agnes</w>": 12858,
  "ago</w>": 1663,
  "agoni": 11097,
  "agonized</w>": 22270,
  "agonizing</w>": 16173,
  "agonizingly</w>": 39550,
  "agony</w>": 6574,
  "agra</w>": 32569,
  "agre": 2121,
  "agree</w>": 3798,
  "agreeable</w>": 21883,
  "agreed</w>": 2567,
  "agreeing</w>": 13940,
  "agreement</w>": 5363,
  "agreements</w>": 31752,
  "agrees</w>": 14197,
  "agri": 20448,
  "agricultural</w>": 34047,
  "agriculture</w>": 36251,
  "ags</w>": 20468,
  "agu": 33930,
  "ah": 13272,
  "ah</w>": 1504,
  "aha": 36617,
  "aha</w>": 15926,
  "ahan</w>": 31378,
  "ahas": 35715,
  "ahasver</w>": 35996,
  "ahead</w>": 2339,
  "ahem</w>": 27321,
  "ahh</w>": 19551,
  "ahhh</w>": 23900,
  "ahmed</w>": 33440,
  "aho": 33211,
  "ahold</w>": 23794,
  "ahu": 35468,
  "ai": 3792,
  "ai</w>": 3555,
  "aid</w>": 6384,
  "aida</w>": 35531,
  "aidan</w>": 6530,
  "aide</w>": 15071,
  "aided</w>": 21729,
  "aiden</w>": 7916,
  "aides</w>": 32511,
  "aiding</w>": 32154,
  "aids</w>": 16207,
  "aiel</w>": 30919,
  "ail": 26084,
  "ailia</w>": 20715,
  "ailing</w>": 38272,
  "aim": 16056,
  "aim</w>": 8312,
  "aimed</w>": 7161,
  "aimee</w>": 15555,
  "aiming</w>": 11475,
  "aimless</w>": 37664,
  "aimlessly</w>": 18635,
  "aims</w>": 28110,
  "ain": 13476,
  "ain</w>": 7255,
  "aina</w>": 18596,
  "aine</w>": 18156,
  "ainsley</w>": 15455,
  "air": 3048,
  "air</w>": 1352,
  "airborne</w>": 18595,
  "aircraft</w>": 9893,
  "aire</w>": 6879,
  "aired</w>": 27675,
  "aires</w>": 26123,
  "airfield</w>": 25909,
  "airing</w>": 27303,
  "airk</w>": 38417,
  "airline</w>": 23681,
  "airlines</w>": 33041,
  "airlock</w>": 19575,
  "airplane</w>": 13566,
  "airplanes</w>": 28150,
  "airport</w>": 5810,
  "airports</w>": 33982,
  "airs</w>": 36662,
  "airship</w>": 26083,
  "airstrip</w>": 33182,
  "airy</w>": 22760,
  "ais": 5738,
  "ais</w>": 33958,
  "aisle</w>": 7515,
  "aisles</w>": 20674,
  "aislin</w>": 20208,
  "aisling</w>": 29228,
  "aislynn</w>": 29029,
  "aj</w>": 12661,
  "ajar</w>": 18108,
  "ajax</w>": 28334,
  "ak": 9803,
  "ak</w>": 3326,
  "aka": 30578,
  "aka</w>": 19282,
  "akane</w>": 39752,
  "akasha</w>": 38947,
  "aked</w>": 10159,
  "akel": 25862,
  "akeldama</w>": 25908,
  "akh</w>": 33802,
  "aki": 16189,
  "aki</w>": 23146,
  "akin</w>": 18807,
  "akira</w>": 34145,
  "akiva</w>": 20942,
  "akon</w>": 34354,
  "al": 501,
  "al'": 23793,
  "al'ice</w>": 36903,
  "al'thor</w>": 36658,
  "al</w>": 679,
  "ala": 14769,
  "ala</w>": 11272,
  "alab": 16188,
  "alabama</w>": 20037,
  "alabaster</w>": 31176,
  "alain</w>": 25235,
  "alaina</w>": 31492,
  "alan</w>": 6864,
  "alana</w>": 18242,
  "alank": 33668,
  "alanki</w>": 34434,
  "alanna</w>": 19427,
  "alar": 15304,
  "alaric</w>": 16651,
  "alarm</w>": 4895,
  "alarmed</w>": 11056,
  "alarming</w>": 16880,
  "alarmingly</w>": 31130,
  "alarms</w>": 17177,
  "alas": 15232,
  "alas</w>": 17159,
  "alaska</w>": 17022,
  "alay": 21803,
  "alayna</w>": 25510,
  "alb": 34228,
  "albany</w>": 34935,
  "albat": 40313,
  "albe": 15006,
  "albeit</w>": 15298,
  "alber": 21136,
  "albert</w>": 8974,
  "alberta</w>": 31351,
  "albino</w>": 37355,
  "albu": 22416,
  "album</w>": 14702,
  "albums</w>": 28224,
  "albuquerque</w>": 39678,
  "alby</w>": 35995,
  "alcan": 37034,
  "alcander</w>": 39636,
  "alcat": 35899,
  "alcatraz</w>": 35994,
  "alche": 21318,
  "alchemist</w>": 27605,
  "alchemists</w>": 25039,
  "alchemy</w>": 34719,
  "alcide</w>": 23065,
  "alco": 5102,
  "alcohol</w>": 6542,
  "alcoholic</w>": 17250,
  "alcove</w>": 15857,
  "ald</w>": 4271,
  "alda</w>": 24600,
  "alde</w>": 35867,
  "alden</w>": 30289,
  "alder": 34010,
  "aldi</w>": 31715,
  "aldo</w>": 28149,
  "alds</w>": 20382,
  "aldur</w>": 39885,
  "ale": 1961,
  "ale</w>": 1515,
  "alea</w>": 15856,
  "alec</w>": 6125,
  "aled</w>": 2487,
  "alee": 30836,
  "aleesha</w>": 35935,
  "alei": 31045,
  "aleister</w>": 31652,
  "alejandro</w>": 26042,
  "alejo</w>": 27256,
  "alek": 34353,
  "alek</w>": 32152,
  "aler": 9335,
  "alera</w>": 34909,
  "alerac</w>": 32399,
  "aleran</w>": 27660,
  "aleria</w>": 27661,
  "alert</w>": 6369,
  "alerted</w>": 15419,
  "alerting</w>": 26443,
  "alertness</w>": 37263,
  "ales</w>": 16961,
  "aless": 30557,
  "alessandro</w>": 31981,
  "alessia</w>": 25111,
  "alethea</w>": 26345,
  "alex": 3347,
  "alex</w>": 2492,
  "alexa</w>": 13828,
  "alexand": 16590,
  "alexander</w>": 6387,
  "alexandra</w>": 9702,
  "alexandria</w>": 17181,
  "alexei</w>": 18798,
  "alexi</w>": 31261,
  "alexia</w>": 11118,
  "alexion</w>": 37327,
  "alexis</w>": 12353,
  "aley</w>": 36059,
  "alez</w>": 30541,
  "alf</w>": 36058,
  "alfie</w>": 27985,
  "alfon": 31543,
  "alfonso</w>": 37440,
  "alfred</w>": 16008,
  "algae</w>": 38022,
  "algar</w>": 31751,
  "alge": 27966,
  "algebra</w>": 30381,
  "algor": 31802,
  "algorith": 32047,
  "ali": 960,
  "ali</w>": 6732,
  "alia</w>": 7630,
  "aliah</w>": 17325,
  "alian</w>": 19267,
  "alias</w>": 28388,
  "alibi</w>": 22228,
  "alice</w>": 5356,
  "alicia</w>": 13420,
  "alie</w>": 6455,
  "alien": 25135,
  "alien</w>": 6028,
  "aliens</w>": 9545,
  "alies</w>": 35585,
  "alig": 15496,
  "alight</w>": 18241,
  "alighted</w>": 32236,
  "align</w>": 33581,
  "aligned</w>": 20579,
  "alignment</w>": 31542,
  "alike</w>": 9532,
  "alin</w>": 21444,
  "alina</w>": 14725,
  "alinda</w>": 29289,
  "aline</w>": 6919,
  "aling</w>": 2427,
  "alisa</w>": 27239,
  "alise</w>": 17021,
  "alised</w>": 27421,
  "alisha</w>": 37823,
  "alism</w>": 12371,
  "alison</w>": 12562,
  "alissa</w>": 35129,
  "alist</w>": 9189,
  "alistair</w>": 14390,
  "alistic</w>": 16331,
  "alists</w>": 14319,
  "alities</w>": 10214,
  "ality</w>": 2411,
  "alive</w>": 2356,
  "alix</w>": 15542,
  "alization</w>": 24396,
  "alize</w>": 10504,
  "alized</w>": 7870,
  "alizes</w>": 32590,
  "alizing</w>": 15065,
  "all": 8828,
  "all</w>": 589,
  "alla": 33420,
  "alla</w>": 28433,
  "allah</w>": 25480,
  "allan</w>": 13805,
  "alle": 5729,
  "alle</w>": 13735,
  "alled</w>": 7686,
  "alleg": 27551,
  "allegations</w>": 34327,
  "alleged</w>": 23318,
  "allegedly</w>": 30260,
  "allegi": 17529,
  "allegiance</w>": 18612,
  "allegra</w>": 38724,
  "allen": 29439,
  "allen</w>": 12070,
  "aller": 16687,
  "allergic</w>": 23392,
  "allergies</w>": 36029,
  "allergy</w>": 39518,
  "allevi": 22070,
  "alleviate</w>": 25210,
  "alley</w>": 5773,
  "alleys</w>": 20714,
  "alleyway</w>": 17254,
  "alleyways</w>": 35166,
  "alli": 5781,
  "alli</w>": 32681,
  "alliance</w>": 11086,
  "alliances</w>": 30599,
  "allie</w>": 9621,
  "allied</w>": 24621,
  "allies</w>": 12507,
  "allig": 20682,
  "alligator</w>": 25457,
  "alligators</w>": 35898,
  "alling</w>": 15030,
  "allison</w>": 8871,
  "allister</w>": 27850,
  "allo": 14799,
  "alloman": 25800,
  "allotted</w>": 31951,
  "allow": 22744,
  "allow</w>": 3383,
  "allowance</w>": 26295,
  "allowed</w>": 2816,
  "allowing</w>": 5663,
  "allows</w>": 14289,
  "alloy</w>": 35530,
  "alls</w>": 15403,
  "allu": 25660,
  "allure</w>": 27203,
  "alluring</w>": 21045,
  "ally": 27187,
  "ally</w>": 675,
  "alma</w>": 14359,
  "almighty</w>": 17981,
  "almond</w>": 24106,
  "almost</w>": 1241,
  "alness</w>": 33653,
  "alo": 7257,
  "alo</w>": 15911,
  "aloft</w>": 18037,
  "alok</w>": 39966,
  "alon": 17925,
  "alone</w>": 1552,
  "along": 7381,
  "along</w>": 1412,
  "alongside</w>": 7404,
  "alonso</w>": 25977,
  "alonzo</w>": 31107,
  "aloof</w>": 21882,
  "alorn</w>": 36659,
  "alorns</w>": 39442,
  "aloud</w>": 6495,
  "alow</w>": 24195,
  "alpha": 20135,
  "alpha</w>": 8050,
  "alphabe": 33467,
  "alphabet</w>": 28267,
  "alphas</w>": 26619,
  "alps</w>": 36999,
  "already</w>": 1245,
  "alright</w>": 4684,
  "als</w>": 1695,
  "also</w>": 1359,
  "alston</w>": 35084,
  "alt</w>": 25950,
  "alta": 16682,
  "altair</w>": 18187,
  "altar</w>": 9325,
  "altea</w>": 36616,
  "alter": 13950,
  "alter</w>": 14469,
  "alterant</w>": 34969,
  "alterants</w>": 33071,
  "alteration</w>": 39677,
  "alterations</w>": 37383,
  "altercation</w>": 30649,
  "altered</w>": 12125,
  "altering</w>": 23111,
  "altern": 6800,
  "alternate</w>": 17143,
  "alternated</w>": 32003,
  "alternately</w>": 26835,
  "alternating</w>": 23960,
  "alternative</w>": 10929,
  "alternatives</w>": 27238,
  "although</w>": 2223,
  "alties</w>": 13800,
  "altitude</w>": 18130,
  "alto</w>": 28556,
  "altogether</w>": 8904,
  "alton</w>": 39799,
  "altru": 35499,
  "alty</w>": 5893,
  "alu": 8997,
  "alum": 39847,
  "aluminum</w>": 18710,
  "alura</w>": 26239,
  "alus</w>": 28945,
  "alv": 37778,
  "alvar</w>": 28344,
  "alvarez</w>": 39243,
  "alvin</w>": 19925,
  "always</w>": 1120,
  "alwood</w>": 35001,
  "alwyn</w>": 32153,
  "aly": 5072,
  "aly</w>": 8745,
  "alya</w>": 17831,
  "alyn</w>": 36943,
  "alynn</w>": 29979,
  "alyse</w>": 35378,
  "alysis</w>": 11722,
  "alyssa</w>": 12600,
  "alz": 34848,
  "alzheimer</w>": 35498,
  "am": 1574,
  "am</w>": 1048,
  "ama": 2539,
  "ama</w>": 11089,
  "amal": 24660,
  "amalthea</w>": 32860,
  "aman": 5236,
  "aman</w>": 21520,
  "amanda</w>": 5522,
  "amar": 16824,
  "amar</w>": 32765,
  "amara</w>": 11979,
  "amaram</w>": 38301,
  "amaranth</w>": 33313,
  "amaranthine</w>": 40271,
  "amari</w>": 35998,
  "amaryllis</w>": 37298,
  "amassed</w>": 35439,
  "amat": 14231,
  "amateur</w>": 19467,
  "amateurs</w>": 34682,
  "amaya</w>": 39718,
  "amaz": 6579,
  "amaze</w>": 28767,
  "amazed</w>": 7529,
  "amazement</w>": 9767,
  "amazing</w>": 3691,
  "amazingly</w>": 14448,
  "amazon</w>": 19171,
  "amazons</w>": 36702,
  "amb": 4928,
  "ambar</w>": 40097,
  "ambassa": 12352,
  "ambassador</w>": 13314,
  "amber": 33070,
  "amber</w>": 5534,
  "ambi": 14372,
  "ambience</w>": 37439,
  "ambient</w>": 32348,
  "ambigu": 26187,
  "ambiguous</w>": 32811,
  "ambition</w>": 17613,
  "ambitions</w>": 24151,
  "ambitious</w>": 18044,
  "ambled</w>": 20148,
  "ambler</w>": 23274,
  "ambling</w>": 38596,
  "ambre</w>": 34009,
  "ambro": 24432,
  "ambrose</w>": 15692,
  "ambrosia</w>": 31001,
  "ambu": 17390,
  "ambul": 8838,
  "ambulance</w>": 8897,
  "ambulances</w>": 35165,
  "ambush</w>": 13849,
  "ambushed</w>": 24542,
  "ame": 29264,
  "ame</w>": 37628,
  "amelia</w>": 7806,
  "amelie</w>": 14201,
  "amen": 11025,
  "amen</w>": 17982,
  "amended</w>": 21586,
  "amendment</w>": 36902,
  "amends</w>": 23034,
  "amenities</w>": 33386,
  "ament</w>": 9017,
  "aments</w>": 35897,
  "amer": 2957,
  "americ": 3038,
  "america</w>": 6056,
  "american</w>": 4427,
  "americans</w>": 10301,
  "americas</w>": 39597,
  "amery</w>": 20064,
  "ames</w>": 36413,
  "amethy": 27986,
  "amethyst</w>": 29810,
  "amherst</w>": 38906,
  "ami": 16011,
  "ami</w>": 10802,
  "amiable</w>": 28256,
  "amiably</w>": 32764,
  "amic</w>": 17140,
  "amica</w>": 36344,
  "amid</w>": 12538,
  "amidst</w>": 14589,
  "amie</w>": 34720,
  "amigo</w>": 36316,
  "amin": 24683,
  "amin</w>": 27550,
  "amira</w>": 17756,
  "amish</w>": 35199,
  "amiss</w>": 20742,
  "amita</w>": 27302,
  "amity</w>": 28332,
  "amjad</w>": 32934,
  "amma</w>": 25509,
  "ammar</w>": 33314,
  "ammo</w>": 15994,
  "ammunition</w>": 14949,
  "amn</w>": 38343,
  "amne": 22155,
  "amnesia</w>": 25495,
  "amo": 30219,
  "amo</w>": 28913,
  "amon": 4304,
  "amon</w>": 30072,
  "among": 7532,
  "among</w>": 3149,
  "amongst</w>": 7544,
  "amor": 34850,
  "amorous</w>": 35961,
  "amory</w>": 25286,
  "amos</w>": 13323,
  "amount</w>": 4289,
  "amounted</w>": 29011,
  "amounts</w>": 14672,
  "amour</w>": 36942,
  "amp": 11542,
  "amp</w>": 23297,
  "amphi": 24718,
  "amphitheater</w>": 36941,
  "ample</w>": 16009,
  "ampli": 15318,
  "amplified</w>": 21842,
  "ampu": 27811,
  "ams</w>": 13267,
  "amster": 23591,
  "amsterdam</w>": 23680,
  "amu": 3120,
  "amulet</w>": 14443,
  "amulets</w>": 33553,
  "amun</w>": 23362,
  "amuse</w>": 24463,
  "amused</w>": 5637,
  "amusement</w>": 6004,
  "amusing</w>": 11155,
  "amy</w>": 4460,
  "amyr": 37747,
  "amyrlin</w>": 38223,
  "amys</w>": 31630,
  "an": 480,
  "an</w>": 531,
  "ana": 8521,
  "ana</w>": 2380,
  "anakin</w>": 30216,
  "anal</w>": 29044,
  "analo": 22106,
  "analogy</w>": 28370,
  "analy": 8833,
  "analysis</w>": 13542,
  "analyst</w>": 28851,
  "analysts</w>": 36217,
  "analytical</w>": 33854,
  "analyze</w>": 18709,
  "analyzed</w>": 25494,
  "analyzing</w>": 22350,
  "ananda</w>": 25996,
  "anar": 28944,
  "anarchi": 35351,
  "anarchy</w>": 30759,
  "anas</w>": 21098,
  "anasta": 17640,
  "anastasia</w>": 18548,
  "anat": 17313,
  "anatomy</w>": 22577,
  "anc": 1538,
  "anca</w>": 14954,
  "ance</w>": 877,
  "anced</w>": 9415,
  "ances</w>": 3514,
  "ancest": 9123,
  "ancestor</w>": 24209,
  "ancestors</w>": 12103,
  "ancestral</w>": 29892,
  "ancestry</w>": 31424,
  "anch": 7596,
  "anche</w>": 15386,
  "anchille</w>": 34908,
  "anchor": 31350,
  "anchor</w>": 11296,
  "anchored</w>": 17232,
  "anchoring</w>": 31750,
  "anchors</w>": 33288,
  "anci": 2908,
  "ancient</w>": 4160,
  "ancients</w>": 20927,
  "ancies</w>": 32270,
  "ancing</w>": 9186,
  "anco</w>": 25010,
  "ancy</w>": 3889,
  "and": 1086,
  "and#": 33745,
  "and</w>": 488,
  "anda</w>": 5337,
  "andais</w>": 31175,
  "andal": 14689,
  "andar": 28927,
  "andarion</w>": 37071,
  "anden</w>": 30092,
  "ander": 19038,
  "ander</w>": 4364,
  "anders</w>": 15836,
  "anderson</w>": 10333,
  "andi</w>": 22801,
  "andie</w>": 29694,
  "andor</w>": 32131,
  "andr": 23234,
  "andra</w>": 5225,
  "andre": 7069,
  "andre</w>": 12789,
  "andrea</w>": 10172,
  "andreas</w>": 28967,
  "andrei</w>": 28555,
  "andrew</w>": 4893,
  "andrews</w>": 16610,
  "andro": 15783,
  "andro</w>": 16946,
  "android</w>": 24826,
  "androids</w>": 39272,
  "androl</w>": 32151,
  "andromeda</w>": 35261,
  "andrus</w>": 37325,
  "andré</w>": 30424,
  "ands</w>": 4128,
  "andulvar</w>": 35959,
  "andy</w>": 6595,
  "ane": 10038,
  "ane</w>": 1422,
  "anec": 32106,
  "aned</w>": 2949,
  "anesthe": 29634,
  "anesthesia</w>": 37382,
  "anew</w>": 18386,
  "aney</w>": 14712,
  "ang": 869,
  "ang</w>": 11679,
  "anga</w>": 36125,
  "angar": 25659,
  "angarak</w>": 40223,
  "ange</w>": 1269,
  "anged</w>": 13667,
  "angel": 4224,
  "angel</w>": 3753,
  "angela</w>": 10157,
  "angeles</w>": 12301,
  "angeli": 13603,
  "angelic</w>": 17988,
  "angelica</w>": 12895,
  "angelina</w>": 12925,
  "angeline</w>": 18029,
  "angelique</w>": 26405,
  "angell</w>": 22055,
  "angelo</w>": 11931,
  "angels</w>": 7201,
  "anger</w>": 1721,
  "angered</w>": 18058,
  "anges</w>": 21361,
  "angh": 36837,
  "anghar": 39374,
  "angie</w>": 8132,
  "anging</w>": 22154,
  "angle</w>": 5560,
  "angled</w>": 7804,
  "angler</w>": 28148,
  "angles</w>": 11033,
  "angling</w>": 15477,
  "anglo</w>": 34227,
  "angrier</w>": 17680,
  "angrily</w>": 7559,
  "angry</w>": 2540,
  "angs</w>": 5029,
  "angst</w>": 26406,
  "angu": 21105,
  "angua</w>": 25976,
  "angui": 9764,
  "anguish</w>": 11168,
  "anguished</w>": 23273,
  "angular</w>": 15968,
  "angus</w>": 11036,
  "anheg</w>": 33312,
  "ani": 1244,
  "ani</w>": 13641,
  "ania</w>": 14564,
  "anian</w>": 24407,
  "anic</w>": 3145,
  "anie</w>": 7284,
  "anim": 3698,
  "anima</w>": 33466,
  "animal</w>": 3880,
  "animalistic</w>": 29718,
  "animals</w>": 4571,
  "animate</w>": 25847,
  "animated</w>": 14994,
  "animatedly</w>": 34624,
  "animation</w>": 28418,
  "animo": 22054,
  "animosity</w>": 22366,
  "animous</w>": 28387,
  "animously</w>": 39373,
  "anine</w>": 40312,
  "aning</w>": 6627,
  "anish</w>": 8022,
  "anism</w>": 37590,
  "anist</w>": 30345,
  "anistan</w>": 20291,
  "anita</w>": 12019,
  "anium</w>": 21078,
  "ank": 2174,
  "ank</w>": 1192,
  "anka</w>": 17124,
  "ankeil</w>": 27673,
  "ankh</w>": 17856,
  "ankle</w>": 7011,
  "ankles</w>": 7679,
  "ankou</w>": 38530,
  "anky</w>": 16297,
  "ann": 1332,
  "ann</w>": 6392,
  "anna": 22035,
  "anna</w>": 2547,
  "annab": 11106,
  "annabel</w>": 31398,
  "annabelle</w>": 11744,
  "annalise</w>": 20550,
  "anne</w>": 3533,
  "anners</w>": 16544,
  "annette</w>": 20113,
  "anni": 9763,
  "anni</w>": 11961,
  "annias</w>": 32066,
  "annie</w>": 5951,
  "annies</w>": 33497,
  "annihi": 32455,
  "annihil": 26382,
  "annihilate</w>": 39051,
  "annihilation</w>": 33853,
  "annika</w>": 35788,
  "anniversary</w>": 16803,
  "anno": 3596,
  "annon</w>": 6664,
  "announ": 5886,
  "announce</w>": 13441,
  "announced</w>": 4771,
  "announcement</w>": 11501,
  "announcements</w>": 33128,
  "announcer</w>": 21759,
  "announces</w>": 19765,
  "announcing</w>": 16892,
  "annoy": 8280,
  "annoy</w>": 20100,
  "annoyance</w>": 8927,
  "annoyed</w>": 5990,
  "annoying</w>": 8256,
  "annoyingly</w>": 28992,
  "annu": 14711,
  "annual</w>": 16763,
  "annul": 34822,
  "annwyl</w>": 14686,
  "anny</w>": 3398,
  "ano": 6774,
  "ano</w>": 6741,
  "anointed</w>": 39751,
  "anom": 19069,
  "anomalies</w>": 36410,
  "anomaly</w>": 24838,
  "anon</w>": 27604,
  "anony": 10978,
  "anonymity</w>": 26186,
  "anonymous</w>": 13203,
  "anonymously</w>": 39717,
  "anor": 16487,
  "anor</w>": 8285,
  "anos</w>": 34718,
  "another</w>": 1007,
  "anova</w>": 33744,
  "ans</w>": 1179,
  "ansel</w>": 23850,
  "anship</w>": 22205,
  "anson</w>": 20741,
  "answ": 1212,
  "answer</w>": 1700,
  "answered</w>": 2163,
  "answering</w>": 5711,
  "answers</w>": 4020,
  "ant": 19253,
  "ant</w>": 681,
  "antag": 20762,
  "antagoni": 25530,
  "antar": 25882,
  "antarcti": 34999,
  "antarctica</w>": 36190,
  "ante": 30822,
  "ante</w>": 14923,
  "antebellum</w>": 39676,
  "antecha": 34717,
  "antechamber</w>": 35438,
  "anten": 19935,
  "antenna</w>": 30071,
  "antennae</w>": 36817,
  "anter": 37197,
  "anth": 7575,
  "anth</w>": 31106,
  "antha</w>": 35000,
  "anthem</w>": 37326,
  "anthine</w>": 40144,
  "anthology</w>": 39596,
  "anthony</w>": 8215,
  "anthro": 24105,
  "anthropo": 26211,
  "anti": 2693,
  "anti</w>": 11369,
  "antibiotic</w>": 39473,
  "antibiotics</w>": 26420,
  "antibodies</w>": 37296,
  "anticip": 4471,
  "anticipate</w>": 19689,
  "anticipated</w>": 10263,
  "anticipating</w>": 16338,
  "anticipation</w>": 6284,
  "antics</w>": 19707,
  "antidote</w>": 21850,
  "antil": 38145,
  "antimatter</w>": 39595,
  "antiqu": 22610,
  "antiquated</w>": 39328,
  "antique</w>": 12054,
  "antiques</w>": 23669,
  "antiquities</w>": 37864,
  "antiseptic</w>": 27456,
  "antlers</w>": 32726,
  "antly</w>": 4270,
  "anto": 23766,
  "antoine</w>": 28255,
  "anton": 7439,
  "anton</w>": 13289,
  "antonia</w>": 19203,
  "antonietta</w>": 20543,
  "antonio</w>": 9966,
  "antony</w>": 27564,
  "ants</w>": 4099,
  "antsy</w>": 27255,
  "anu": 31308,
  "anu</w>": 36411,
  "anus</w>": 26524,
  "anvil</w>": 31580,
  "anx": 3735,
  "anxiety</w>": 7040,
  "anxious</w>": 6021,
  "anxiously</w>": 10297,
  "any": 791,
  "any</w>": 775,
  "anya</w>": 7964,
  "anybody</w>": 5425,
  "anyhow</w>": 13378,
  "anyi</w>": 39472,
  "anymore</w>": 2357,
  "anyone</w>": 1489,
  "anyplace</w>": 30277,
  "anything</w>": 1033,
  "anytime</w>": 8046,
  "anyway</w>": 2015,
  "anyways</w>": 15266,
  "anywhere</w>": 3323,
  "anza</w>": 26719,
  "aní</w>": 28993,
  "ao": 21884,
  "ao</w>": 14099,
  "ap": 9508,
  "ap</w>": 21526,
  "apache</w>": 38300,
  "apar": 29768,
  "apart</w>": 2951,
  "apartment</w>": 2679,
  "apartments</w>": 13988,
  "apathy</w>": 30014,
  "ape": 22241,
  "ape</w>": 21613,
  "apella</w>": 37262,
  "aper": 37231,
  "apes</w>": 31936,
  "apex</w>": 24208,
  "aph": 15481,
  "aphim</w>": 38456,
  "aphrael</w>": 30382,
  "aphro": 19426,
  "aphrodi": 33127,
  "aphrodisiac</w>": 35036,
  "aphrodite</w>": 24431,
  "apiece</w>": 36452,
  "apo": 2683,
  "apocalyp": 16714,
  "apocalypse</w>": 19383,
  "apocalyptic</w>": 36216,
  "apol": 8989,
  "apollo</w>": 10375,
  "apolly": 40006,
  "apollymi</w>": 40270,
  "apollyon</w>": 36736,
  "apolo": 3144,
  "apologe": 9856,
  "apologetic</w>": 13199,
  "apologetically</w>": 16417,
  "apologi": 4082,
  "apologies</w>": 12408,
  "apologise</w>": 25643,
  "apologised</w>": 35745,
  "apologize</w>": 6141,
  "apologized</w>": 11393,
  "apologizing</w>": 16441,
  "apology</w>": 8344,
  "apore</w>": 32648,
  "apostles</w>": 37491,
  "apothe": 34433,
  "apothecary</w>": 35637,
  "app": 950,
  "app</w>": 28017,
  "appal": 38681,
  "appalled</w>": 16151,
  "appalling</w>": 26331,
  "appar": 2598,
  "apparatus</w>": 26178,
  "apparel</w>": 37354,
  "apparent</w>": 8044,
  "apparently</w>": 2988,
  "apparition</w>": 23145,
  "appe": 8040,
  "appeal</w>": 10327,
  "appealed</w>": 19612,
  "appealing</w>": 11997,
  "appeals</w>": 29990,
  "appear</w>": 4464,
  "appearance</w>": 5038,
  "appearances</w>": 15522,
  "appeared</w>": 2238,
  "appearing</w>": 10017,
  "appears</w>": 6637,
  "appease</w>": 23991,
  "appeased</w>": 35497,
  "appen": 32891,
  "append": 23361,
  "appendage</w>": 32150,
  "appendages</w>": 34046,
  "appendix</w>": 39271,
  "appet": 10503,
  "appeti": 19943,
  "appetite</w>": 11406,
  "appetites</w>": 32002,
  "appetizer</w>": 36189,
  "appetizers</w>": 33528,
  "appetizing</w>": 36250,
  "apping</w>": 29519,
  "applau": 9175,
  "applaud</w>": 31836,
  "applauded</w>": 23875,
  "applauding</w>": 37152,
  "applause</w>": 11858,
  "apple": 32301,
  "apple</w>": 7304,
  "apples</w>": 14389,
  "appleton</w>": 36998,
  "appli": 19219,
  "appliances</w>": 25171,
  "applic": 11767,
  "application</w>": 15134,
  "applications</w>": 24226,
  "applied</w>": 9629,
  "applies</w>": 27320,
  "apply</w>": 11072,
  "applying</w>": 16862,
  "appo": 5680,
  "appoint</w>": 39675,
  "appointed</w>": 13486,
  "appointment</w>": 7785,
  "appointments</w>": 18761,
  "apprai": 25125,
  "appraisal</w>": 32105,
  "appraised</w>": 30896,
  "appraising</w>": 25465,
  "appre": 2959,
  "appreci": 3290,
  "appreciate</w>": 4676,
  "appreciated</w>": 8864,
  "appreciates</w>": 34277,
  "appreciating</w>": 26563,
  "appreciation</w>": 11365,
  "appreciative</w>": 18913,
  "appreciatively</w>": 23571,
  "apprehen": 9088,
  "apprehend</w>": 37113,
  "apprehended</w>": 33652,
  "apprehension</w>": 13684,
  "apprehensive</w>": 18528,
  "apprehensively</w>": 29717,
  "appren": 12156,
  "apprenti": 21919,
  "apprentice</w>": 15443,
  "apprentices</w>": 30758,
  "apprenticeship</w>": 37381,
  "appro": 1791,
  "approach</w>": 5035,
  "approachable</w>": 35058,
  "approached</w>": 3350,
  "approaches</w>": 15756,
  "approaching</w>": 5506,
  "appropri": 5771,
  "appropriate</w>": 6411,
  "appropriately</w>": 20185,
  "approval</w>": 7792,
  "approve</w>": 11678,
  "approved</w>": 12140,
  "approving</w>": 26795,
  "approvingly</w>": 24989,
  "approxim": 12682,
  "approximate</w>": 35617,
  "approximately</w>": 15152,
  "apr": 10694,
  "apri": 8851,
  "april</w>": 9246,
  "apron</w>": 11362,
  "apt</w>": 19926,
  "aptitude</w>": 34143,
  "aptly</w>": 35787,
  "aqu": 13383,
  "aqua": 33360,
  "aqua</w>": 29085,
  "aquamarine</w>": 40005,
  "aquar": 20006,
  "aquarium</w>": 31026,
  "aquarius</w>": 29227,
  "aquil": 40007,
  "aquit": 25508,
  "aquitaine</w>": 26929,
  "ar": 489,
  "ar</w>": 1555,
  "ara": 11090,
  "ara</w>": 6372,
  "arab": 14781,
  "arab</w>": 23590,
  "arabella</w>": 38416,
  "arabia</w>": 40143,
  "arabian</w>": 33552,
  "arabic</w>": 23803,
  "arabs</w>": 36701,
  "arach": 35714,
  "aracia</w>": 30918,
  "arag": 26731,
  "aragorn</w>": 30821,
  "aram</w>": 26654,
  "aramei</w>": 34432,
  "aramys</w>": 36343,
  "aran</w>": 21756,
  "arang": 37589,
  "arangbar</w>": 37984,
  "araris</w>": 31129,
  "arbit": 23338,
  "arbitr": 30134,
  "arbitrary</w>": 35233,
  "arbor</w>": 38342,
  "arc": 18527,
  "arc</w>": 11563,
  "arca": 18414,
  "arcade</w>": 28489,
  "arcadia</w>": 36657,
  "arcadian</w>": 30757,
  "arcane</w>": 25156,
  "arced</w>": 25561,
  "arch": 7182,
  "arch</w>": 7795,
  "archa": 15313,
  "archaeo": 25234,
  "archaic</w>": 27735,
  "archang": 19088,
  "archangel</w>": 22783,
  "archangels</w>": 35616,
  "archbishop</w>": 38271,
  "archchancellor</w>": 27659,
  "arche": 26817,
  "arched</w>": 5407,
  "archer</w>": 10879,
  "archers</w>": 18338,
  "archery</w>": 31889,
  "arches</w>": 17173,
  "archi": 5722,
  "archibald</w>": 36095,
  "archie</w>": 10913,
  "arching</w>": 12765,
  "architec": 13059,
  "architect</w>": 21341,
  "architects</w>": 35558,
  "architectural</w>": 27901,
  "architecture</w>": 17556,
  "archive</w>": 28343,
  "archives</w>": 20355,
  "archs</w>": 32995,
  "archway</w>": 14373,
  "archy</w>": 16395,
  "arcing</w>": 29809,
  "arcs</w>": 28306,
  "arctic</w>": 22375,
  "arctor</w>": 38792,
  "ard": 32046,
  "ard</w>": 698,
  "arden</w>": 23242,
  "ardent</w>": 29177,
  "ardeur</w>": 40389,
  "ardly</w>": 26368,
  "ardo</w>": 18200,
  "ardor</w>": 35350,
  "ards</w>": 3277,
  "ardu": 26960,
  "arduous</w>": 30954,
  "are": 2183,
  "are</w>": 640,
  "area</w>": 2363,
  "areas</w>": 7739,
  "ared</w>": 1536,
  "arek</w>": 17026,
  "arel</w>": 21388,
  "arella</w>": 37151,
  "arely</w>": 5631,
  "aren": 24694,
  "arena</w>": 11440,
  "arendia</w>": 36901,
  "ares</w>": 9953,
  "arese</w>": 35311,
  "arez</w>": 22232,
  "arg": 34276,
  "argen": 25628,
  "argh</w>": 29155,
  "argu": 3220,
  "arguably</w>": 37295,
  "argue</w>": 5417,
  "argued</w>": 7967,
  "argues</w>": 36543,
  "arguing</w>": 7851,
  "argument</w>": 6014,
  "arguments</w>": 12522,
  "argus</w>": 18328,
  "ari": 3419,
  "ari</w>": 5519,
  "aria</w>": 6087,
  "ariad": 35636,
  "ariadne</w>": 36450,
  "arian</w>": 9590,
  "ariana</w>": 21345,
  "arianna</w>": 15960,
  "arianne</w>": 35496,
  "arians</w>": 25540,
  "arias</w>": 22478,
  "arid</w>": 34872,
  "arie</w>": 23492,
  "ariel</w>": 14403,
  "arielle</w>": 35529,
  "aries</w>": 7986,
  "arii</w>": 29043,
  "arik</w>": 29466,
  "arily</w>": 6044,
  "arin</w>": 25435,
  "arina</w>": 25479,
  "aring</w>": 5905,
  "ario</w>": 38826,
  "ariously</w>": 35958,
  "aris": 26367,
  "aris</w>": 18687,
  "arise</w>": 20525,
  "arisen</w>": 35528,
  "arises</w>": 36282,
  "arissa</w>": 39594,
  "arist</w>": 31000,
  "aristo": 13430,
  "aristocracy</w>": 34431,
  "aristocrat</w>": 34352,
  "aristocratic</w>": 26983,
  "aristotle</w>": 28810,
  "arity</w>": 10383,
  "arium</w>": 38144,
  "arius</w>": 39798,
  "ariyal</w>": 33069,
  "arizona</w>": 14367,
  "ark": 16566,
  "ark</w>": 14691,
  "arkadin</w>": 21963,
  "arkansas</w>": 28605,
  "arlen</w>": 32622,
  "arlene</w>": 24445,
  "arlington</w>": 36544,
  "arly</w>": 23535,
  "arm": 5382,
  "arm</w>": 1188,
  "arma": 18920,
  "armada</w>": 33651,
  "armageddon</w>": 36281,
  "arman": 22844,
  "armand</w>": 17003,
  "armani</w>": 32171,
  "armb": 36780,
  "armchair</w>": 14427,
  "armchairs</w>": 29600,
  "armed</w>": 4349,
  "armful</w>": 34716,
  "armies</w>": 13146,
  "armin</w>": 38378,
  "arming</w>": 10378,
  "armingly</w>": 28524,
  "armoire</w>": 31780,
  "armor</w>": 6473,
  "armored</w>": 14835,
  "armory</w>": 25260,
  "armour</w>": 15977,
  "armoured</w>": 33580,
  "armp": 17694,
  "armpit</w>": 26511,
  "armpits</w>": 24415,
  "armrest</w>": 24631,
  "armrests</w>": 34968,
  "arms</w>": 1190,
  "armstrong</w>": 22809,
  "army</w>": 3409,
  "arn": 36700,
  "arn</w>": 28744,
  "arnie</w>": 14834,
  "arno": 13481,
  "arnold</w>": 14841,
  "aro</w>": 28191,
  "arob": 36155,
  "arobynn</w>": 36215,
  "arom": 23951,
  "aroma</w>": 12745,
  "aromas</w>": 34405,
  "aromatic</w>": 37229,
  "aron</w>": 36997,
  "arose</w>": 14154,
  "arou": 6431,
  "around</w>": 785,
  "arousal</w>": 10100,
  "arouse</w>": 26011,
  "aroused</w>": 10816,
  "arousing</w>": 21451,
  "arphallo</w>": 40222,
  "arr": 3225,
  "arr</w>": 30777,
  "arra": 23546,
  "arra</w>": 34045,
  "arrang": 3820,
  "arrange</w>": 9154,
  "arranged</w>": 5882,
  "arrangement</w>": 9936,
  "arrangements</w>": 9906,
  "arranging</w>": 14537,
  "array</w>": 11330,
  "arrayed</w>": 33068,
  "arrest</w>": 8621,
  "arrested</w>": 8464,
  "arresting</w>": 26718,
  "arrests</w>": 34455,
  "arri": 1943,
  "arria</w>": 36581,
  "arriane</w>": 28488,
  "arrival</w>": 6543,
  "arrivals</w>": 24029,
  "arrive</w>": 5933,
  "arrived</w>": 2573,
  "arrives</w>": 13419,
  "arriving</w>": 9043,
  "arro": 27379,
  "arrog": 6866,
  "arrogance</w>": 13202,
  "arrogant</w>": 9045,
  "arrogantly</w>": 34226,
  "arron</w>": 40185,
  "arrow</w>": 6676,
  "arrowh": 28757,
  "arrowhead</w>": 34967,
  "arrows</w>": 9298,
  "ars</w>": 6292,
  "arse</w>": 7163,
  "arsen": 17386,
  "arsenal</w>": 21978,
  "arson</w>": 28147,
  "art": 17795,
  "art</w>": 2212,
  "arte": 22449,
  "arte</w>": 40096,
  "artem": 13635,
  "artemi": 35744,
  "artemis</w>": 13756,
  "artemisia</w>": 38594,
  "arteries</w>": 28072,
  "artery</w>": 21648,
  "artfully</w>": 29677,
  "arthr": 27617,
  "arthritis</w>": 34200,
  "arthur</w>": 8219,
  "arti": 3418,
  "article</w>": 8374,
  "articles</w>": 13265,
  "articu": 21740,
  "articulate</w>": 23241,
  "artie</w>": 29334,
  "artifact</w>": 18500,
  "artifacts</w>": 17016,
  "artificial</w>": 12823,
  "artificially</w>": 38143,
  "artil": 22089,
  "artillery</w>": 22564,
  "artist</w>": 8917,
  "artistic</w>": 19990,
  "artists</w>": 15174,
  "arts</w>": 11219,
  "arturo</w>": 28588,
  "artwork</w>": 20025,
  "arum</w>": 32347,
  "arun</w>": 39750,
  "arus</w>": 27948,
  "arvil</w>": 32045,
  "ary</w>": 1271,
  "arya</w>": 19095,
  "as": 621,
  "as</w>": 557,
  "asa": 26200,
  "asa</w>": 18656,
  "asael</w>": 30401,
  "asan</w>": 21585,
  "asap</w>": 24623,
  "asar": 24097,
  "asc": 25038,
  "ascanio</w>": 35310,
  "ascen": 10321,
  "ascend</w>": 25155,
  "ascended</w>": 17099,
  "ascending</w>": 27319,
  "ascension</w>": 22622,
  "ascent</w>": 25276,
  "ascer": 37150,
  "ascertain</w>": 26680,
  "asco</w>": 21275,
  "ase</w>": 10469,
  "ased</w>": 8485,
  "ases</w>": 15170,
  "ash": 3867,
  "ash</w>": 3005,
  "asha": 7145,
  "asha</w>": 11917,
  "ashamed</w>": 7647,
  "ashan</w>": 38593,
  "ashby</w>": 25068,
  "ashe</w>": 7499,
  "ashed</w>": 16024,
  "ashedly</w>": 39242,
  "ashen</w>": 19368,
  "asher</w>": 9834,
  "ashes</w>": 10693,
  "ashford</w>": 35819,
  "ashland</w>": 24910,
  "ashleigh</w>": 27318,
  "ashley</w>": 8366,
  "ashli</w>": 32791,
  "ashlyn</w>": 21962,
  "ashore</w>": 18787,
  "ashra</w>": 38975,
  "ashton</w>": 13052,
  "ashtray</w>": 20950,
  "ashwin</w>": 37934,
  "asi</w>": 23076,
  "asia</w>": 16732,
  "asian</w>": 15355,
  "aside</w>": 2913,
  "asin": 40347,
  "asing</w>": 18043,
  "ask": 27722,
  "ask</w>": 1402,
  "aska": 34172,
  "askance</w>": 35349,
  "asked</w>": 864,
  "askew</w>": 23644,
  "askin</w>": 33311,
  "asking</w>": 2674,
  "asks</w>": 2888,
  "asle": 3206,
  "asleep</w>": 3208,
  "asm</w>": 4822,
  "asmodeus</w>": 29620,
  "ason</w>": 40221,
  "asp": 8941,
  "asp</w>": 36449,
  "asparag": 39244,
  "asparagus</w>": 39327,
  "aspect</w>": 12347,
  "aspects</w>": 16469,
  "aspen</w>": 16479,
  "asper</w>": 28037,
  "asphalt</w>": 14207,
  "aspho": 36249,
  "asphodel</w>": 36479,
  "aspi": 34252,
  "aspir": 13490,
  "aspirations</w>": 30776,
  "aspiria</w>": 34511,
  "aspirin</w>": 21497,
  "aspiring</w>": 39326,
  "ass</w>": 2244,
  "assa": 3289,
  "assail": 17383,
  "assail</w>": 31521,
  "assailant</w>": 21274,
  "assailants</w>": 35164,
  "assailed</w>": 27984,
  "assass": 5813,
  "assassin</w>": 8783,
  "assassinate</w>": 32486,
  "assassinated</w>": 33310,
  "assassination</w>": 17868,
  "assassins</w>": 13344,
  "assault</w>": 7618,
  "assaulted</w>": 15279,
  "assaulting</w>": 30156,
  "assaults</w>": 34510,
  "asse": 4493,
  "assed</w>": 25831,
  "assemb": 35035,
  "assemble</w>": 24014,
  "assembled</w>": 11828,
  "assembling</w>": 30380,
  "assembly</w>": 13677,
  "assent</w>": 25539,
  "asser": 12870,
  "assert</w>": 33209,
  "asserted</w>": 24766,
  "assertion</w>": 32763,
  "assertive</w>": 36940,
  "asses</w>": 13589,
  "assess</w>": 18215,
  "assessed</w>": 22105,
  "assessing</w>": 17417,
  "assessment</w>": 14441,
  "asset</w>": 18223,
  "assets</w>": 15964,
  "assho": 8406,
  "asshole</w>": 9439,
  "assholes</w>": 22640,
  "assi": 6218,
  "assia</w>": 39674,
  "assign": 7328,
  "assign</w>": 27221,
  "assigned</w>": 8727,
  "assigning</w>": 38905,
  "assignment</w>": 8710,
  "assignments</w>": 16681,
  "assimil": 27042,
  "assimilate</w>": 39593,
  "assist": 4917,
  "assist</w>": 10871,
  "assistance</w>": 9444,
  "assistant</w>": 6303,
  "assistants</w>": 18919,
  "assisted</w>": 18884,
  "assisting</w>": 25581,
  "asso</w>": 27672,
  "associ": 6146,
  "associate</w>": 14125,
  "associated</w>": 12837,
  "associates</w>": 15264,
  "association</w>": 14777,
  "associations</w>": 40269,
  "assor": 18207,
  "assorted</w>": 21086,
  "assortment</w>": 18374,
  "assu": 2613,
  "assuage</w>": 36057,
  "assume</w>": 5396,
  "assumed</w>": 4590,
  "assumes</w>": 30953,
  "assuming</w>": 7699,
  "assumption</w>": 14572,
  "assumptions</w>": 20902,
  "assur": 28876,
  "assurance</w>": 17046,
  "assurances</w>": 29483,
  "assure</w>": 7801,
  "assured</w>": 4925,
  "assuredly</w>": 29061,
  "assures</w>": 24406,
  "assuring</w>": 23969,
  "ast": 3786,
  "ast</w>": 4232,
  "asta</w>": 30070,
  "aster": 11386,
  "aster</w>": 27257,
  "asteroid</w>": 19702,
  "asteroids</w>": 36448,
  "asth": 30626,
  "asthma</w>": 34430,
  "astic</w>": 13003,
  "astically</w>": 13978,
  "aston</w>": 28285,
  "astoni": 6520,
  "astonished</w>": 11499,
  "astonishing</w>": 18450,
  "astonishingly</w>": 34171,
  "astonishment</w>": 11144,
  "astor</w>": 24876,
  "astounded</w>": 21332,
  "astounding</w>": 26177,
  "astr": 33856,
  "astra</w>": 33236,
  "astral</w>": 27662,
  "astray</w>": 31328,
  "astri": 18615,
  "astrid</w>": 19688,
  "astride</w>": 23562,
  "astro": 23097,
  "astron": 15422,
  "astronau": 29891,
  "astronaut</w>": 37822,
  "astronom": 29767,
  "astronomer</w>": 34381,
  "astronomical</w>": 37903,
  "astronomy</w>": 33886,
  "astu": 20356,
  "astute</w>": 28850,
  "asunder</w>": 40346,
  "asy": 19499,
  "asy</w>": 5179,
  "asylum</w>": 23075,
  "asz</w>": 30917,
  "at": 517,
  "at</w>": 491,
  "ata</w>": 11877,
  "atable</w>": 32810,
  "atan</w>": 35348,
  "ate": 2956,
  "ate</w>": 746,
  "ated</w>": 875,
  "atedly</w>": 7444,
  "atee</w>": 22220,
  "ately</w>": 1477,
  "aten</w>": 4275,
  "ater": 31520,
  "ater</w>": 3227,
  "aters</w>": 17292,
  "ates</w>": 1917,
  "ath": 4955,
  "ath</w>": 907,
  "athaliah</w>": 36580,
  "athan</w>": 5453,
  "athe": 30073,
  "athen": 35198,
  "athena</w>": 18597,
  "athens</w>": 22083,
  "athi</w>": 39884,
  "athle": 10289,
  "athlete</w>": 22442,
  "athletes</w>": 31081,
  "athletic</w>": 14468,
  "athon</w>": 15225,
  "athor</w>": 36094,
  "athos</w>": 29288,
  "athys</w>": 26816,
  "ati": 671,
  "ati</w>": 17825,
  "atial</w>": 31467,
  "atic</w>": 3317,
  "atical</w>": 28875,
  "atically</w>": 28036,
  "atics</w>": 20538,
  "atile</w>": 20433,
  "atime</w>": 34533,
  "atin</w>": 25592,
  "ating</w>": 1160,
  "atingly</w>": 18311,
  "ation": 7427,
  "ation</w>": 766,
  "ational</w>": 3778,
  "ationally</w>": 25860,
  "ations</w>": 1600,
  "atis": 25009,
  "atium</w>": 36996,
  "ative</w>": 2422,
  "atively</w>": 10194,
  "atives</w>": 10754,
  "ativity</w>": 20242,
  "atlan": 7256,
  "atlanta</w>": 13480,
  "atlantean</w>": 21288,
  "atlanteans</w>": 34532,
  "atlantic</w>": 15764,
  "atlantis</w>": 19685,
  "atlas</w>": 21282,
  "atlee</w>": 37902,
  "atm</w>": 36656,
  "atmo": 7535,
  "atmosphere</w>": 7918,
  "atmospheric</w>": 32269,
  "ato": 22524,
  "ato</w>": 25224,
  "atom</w>": 30999,
  "atomic</w>": 23959,
  "atoms</w>": 28109,
  "aton": 38455,
  "aton</w>": 21015,
  "atone</w>": 35615,
  "atonic</w>": 33551,
  "atop</w>": 7562,
  "ator</w>": 2175,
  "atore</w>": 14598,
  "atories</w>": 31934,
  "ators</w>": 5957,
  "atory</w>": 7282,
  "atos</w>": 25780,
  "atra</w>": 24278,
  "atre": 15179,
  "atreides</w>": 34454,
  "atreus</w>": 17420,
  "atri": 8416,
  "atric</w>": 21031,
  "atrium</w>": 24867,
  "atro": 15691,
  "atrocious</w>": 35713,
  "atrocities</w>": 30625,
  "ats</w>": 2239,
  "att": 1268,
  "att</w>": 9279,
  "atta</w>": 35743,
  "attach": 29438,
  "attach</w>": 21624,
  "attached</w>": 5311,
  "attaching</w>": 32809,
  "attachment</w>": 19881,
  "attachments</w>": 36124,
  "attack</w>": 2815,
  "attacked</w>": 5022,
  "attacker</w>": 12943,
  "attackers</w>": 15672,
  "attacking</w>": 9493,
  "attacks</w>": 9152,
  "attain</w>": 30856,
  "attainable</w>": 36280,
  "attained</w>": 32933,
  "attemp": 2617,
  "attempt</w>": 4000,
  "attempted</w>": 6496,
  "attempting</w>": 7945,
  "attempts</w>": 8827,
  "atten": 1590,
  "attend</w>": 7214,
  "attendance</w>": 16143,
  "attendant</w>": 12475,
  "attendants</w>": 20298,
  "attended</w>": 9609,
  "attendees</w>": 36028,
  "attending</w>": 11801,
  "attention</w>": 1863,
  "attentions</w>": 21175,
  "attentive</w>": 18786,
  "attentively</w>": 28315,
  "atters</w>": 17926,
  "attest</w>": 38180,
  "atti": 22526,
  "atti</w>": 35786,
  "attic</w>": 11619,
  "atticus</w>": 26815,
  "attire</w>": 13632,
  "attired</w>": 32195,
  "attitude</w>": 6534,
  "attitudes</w>": 27947,
  "atton</w>": 40095,
  "attor": 7842,
  "attorney</w>": 8738,
  "attorneys</w>": 21612,
  "attr": 4301,
  "attrac": 16220,
  "attract</w>": 12597,
  "attracted</w>": 7960,
  "attracting</w>": 23087,
  "attraction</w>": 9095,
  "attractions</w>": 35818,
  "attractive</w>": 6269,
  "attracts</w>": 36056,
  "attribu": 14460,
  "attribute</w>": 31423,
  "attributed</w>": 25478,
  "attributes</w>": 25209,
  "attuned</w>": 26785,
  "atu": 2395,
  "ature</w>": 2709,
  "atures</w>": 2912,
  "aturi": 26699,
  "atus</w>": 18232,
  "atv</w>": 34250,
  "aty</w>": 12971,
  "au": 1512,
  "au</w>": 22222,
  "aubrey</w>": 20641,
  "auburn</w>": 14774,
  "auction</w>": 15720,
  "aud": 18088,
  "aud</w>": 33040,
  "audacity</w>": 24919,
  "audi": 4543,
  "audi</w>": 27161,
  "audible</w>": 10270,
  "audibly</w>": 22609,
  "audience</w>": 6238,
  "audio</w>": 20166,
  "audit": 14090,
  "audit</w>": 39846,
  "audition</w>": 26210,
  "auditorium</w>": 17324,
  "audley</w>": 30648,
  "audrey</w>": 9727,
  "auer</w>": 39270,
  "aug": 24207,
  "augh</w>": 31835,
  "augu": 16936,
  "augur": 36279,
  "august</w>": 9329,
  "augusta</w>": 34934,
  "augustine</w>": 38871,
  "augustus</w>": 28459,
  "aun": 16978,
  "aundy</w>": 21387,
  "aunt</w>": 3470,
  "auntie</w>": 17119,
  "aunts</w>": 21772,
  "aunty</w>": 36027,
  "aur": 9954,
  "aura</w>": 8925,
  "auras</w>": 26562,
  "aureli": 25186,
  "aurelius</w>": 31629,
  "auron</w>": 19354,
  "aurora</w>": 17433,
  "aust": 30238,
  "austen</w>": 32859,
  "austere</w>": 32744,
  "austin</w>": 9554,
  "austr": 11813,
  "australia</w>": 15098,
  "australian</w>": 21995,
  "austri": 26284,
  "austria</w>": 36188,
  "auth": 12299,
  "authenti": 15833,
  "authentic</w>": 19999,
  "authenticity</w>": 34380,
  "author": 4649,
  "author</w>": 6754,
  "authorit": 19975,
  "authoritative</w>": 23500,
  "authorities</w>": 10549,
  "authority</w>": 7116,
  "authorization</w>": 31519,
  "authorized</w>": 18170,
  "authors</w>": 21510,
  "auto": 9419,
  "auto</w>": 16004,
  "autoc</w>": 29465,
  "autograph</w>": 29084,
  "autographs</w>": 38529,
  "autom": 5074,
  "automat": 7435,
  "automated</w>": 27792,
  "automatic</w>": 10223,
  "automatically</w>": 7991,
  "automaton</w>": 33885,
  "automo": 21561,
  "automob": 36378,
  "automobile</w>": 24160,
  "automobiles</w>": 36699,
  "auton": 31025,
  "autopilot</w>": 25986,
  "autopsy</w>": 20578,
  "autu": 8933,
  "autumn</w>": 9090,
  "aux</w>": 31466,
  "auxi": 34623,
  "auxili": 35527,
  "auxiliary</w>": 37353,
  "av": 8557,
  "ava": 4935,
  "ava</w>": 6842,
  "avail": 5395,
  "avail</w>": 17565,
  "available</w>": 5467,
  "aval": 11601,
  "avalanche</w>": 22743,
  "avalon</w>": 14928,
  "avan": 37779,
  "avans</w>": 34078,
  "avar": 29520,
  "avasar": 25086,
  "avasarala</w>": 25087,
  "avat": 30237,
  "avatar</w>": 33981,
  "ave</w>": 17959,
  "avel": 18198,
  "avelyn</w>": 26223,
  "aven": 7206,
  "avenge</w>": 22633,
  "avenged</w>": 39241,
  "avenging</w>": 35689,
  "avenue</w>": 9398,
  "avenues</w>": 29565,
  "aver": 6150,
  "average</w>": 8453,
  "aversion</w>": 25911,
  "avert</w>": 27920,
  "averted</w>": 15437,
  "averting</w>": 33152,
  "avery</w>": 7636,
  "avi": 11695,
  "avi</w>": 22677,
  "avia</w>": 39600,
  "avian</w>": 35232,
  "aviation</w>": 36778,
  "aviator</w>": 36735,
  "aviators</w>": 39549,
  "avice</w>": 36779,
  "avid</w>": 26700,
  "avidly</w>": 39592,
  "aviend": 31834,
  "aviendha</w>": 31863,
  "avo": 2712,
  "avocado</w>": 33825,
  "avoi": 4774,
  "avoid": 25223,
  "avoid</w>": 3922,
  "avoidance</w>": 33067,
  "avoided</w>": 7595,
  "avoiding</w>": 7108,
  "avoids</w>": 37821,
  "avon</w>": 20484,
  "avril</w>": 27341,
  "aw": 1656,
  "aw</w>": 12320,
  "awa": 6513,
  "awa</w>": 30937,
  "await</w>": 18424,
  "awaited</w>": 12317,
  "awaiting</w>": 11853,
  "awaits</w>": 22523,
  "awak": 8652,
  "awake</w>": 4014,
  "awaken</w>": 17851,
  "awakened</w>": 11202,
  "awakening</w>": 16646,
  "awar": 7731,
  "award</w>": 17079,
  "awarded</w>": 26834,
  "awards</w>": 23204,
  "aware</w>": 2805,
  "awareness</w>": 8728,
  "awares</w>": 33465,
  "awash</w>": 26597,
  "away</w>": 841,
  "awe": 37490,
  "awe</w>": 7818,
  "awed</w>": 17451,
  "awesome</w>": 6702,
  "awest": 30091,
  "awestruck</w>": 30400,
  "awful</w>": 4747,
  "awfully</w>": 13741,
  "awhile</w>": 8755,
  "awk": 3936,
  "awkward</w>": 4995,
  "awkwardly</w>": 8744,
  "awkwardness</w>": 18248,
  "awning</w>": 25738,
  "awo": 29741,
  "awoke</w>": 8784,
  "awoken</w>": 23783,
  "awol</w>": 31862,
  "awry</w>": 32215,
  "aww</w>": 30192,
  "ax": 4987,
  "ax</w>": 9937,
  "axe</w>": 9324,
  "axel</w>": 18186,
  "axes</w>": 20839,
  "axi": 33824,
  "axis</w>": 24525,
  "axton</w>": 31980,
  "ay": 10319,
  "ay</w>": 6032,
  "aya": 29991,
  "aya</w>": 15900,
  "ayden</w>": 22351,
  "aye</w>": 5814,
  "aylan</w>": 36026,
  "ayn</w>": 34574,
  "ays</w>": 34970,
  "az": 7355,
  "az</w>": 16326,
  "aza": 24005,
  "aza</w>": 27204,
  "azalea</w>": 25799,
  "azami</w>": 34404,
  "azar</w>": 28305,
  "azazil</w>": 37112,
  "azi": 30034,
  "azrael</w>": 27494,
  "azriel</w>": 39797,
  "azur": 32510,
  "azurdee</w>": 32743,
  "azure</w>": 27317,
  "b": 21,
  "b'": 31377,
  "b.": 28901,
  "b.</w>": 11512,
  "b.c.</w>": 36836,
  "b</w>": 259,
  "ba": 829,
  "ba</w>": 6987,
  "baal</w>": 39749,
  "bab": 1078,
  "baba</w>": 24206,
  "babble</w>": 21676,
  "babbled</w>": 28637,
  "babbling</w>": 17491,
  "babe</w>": 6665,
  "babes</w>": 27767,
  "babies</w>": 7122,
  "bable</w>": 14029,
  "baby": 10789,
  "baby</w>": 1924,
  "babylon</w>": 27410,
  "babysit</w>": 28502,
  "babysitter</w>": 24096,
  "babysitting</w>": 25374,
  "bac": 6031,
  "bach</w>": 29740,
  "bachel": 12850,
  "bachelor</w>": 15323,
  "bachelorette</w>": 40476,
  "bachelors</w>": 38222,
  "back": 1923,
  "back</w>": 651,
  "backbone</w>": 25340,
  "backdoor</w>": 28766,
  "backdrop</w>": 20154,
  "backed</w>": 4393,
  "backer</w>": 33579,
  "backfired</w>": 34509,
  "background</w>": 5614,
  "backgrounds</w>": 35288,
  "backhand</w>": 37438,
  "backhanded</w>": 28793,
  "backing</w>": 8604,
  "backlash</w>": 36478,
  "backlit</w>": 37777,
  "backpack</w>": 6476,
  "backpacks</w>": 26679,
  "backs</w>": 6098,
  "backseat</w>": 9839,
  "backside</w>": 11943,
  "backstage</w>": 18774,
  "backtrack</w>": 35347,
  "backtracked</w>": 35934,
  "backup</w>": 11270,
  "backward</w>": 5041,
  "backwards</w>": 6505,
  "backyard</w>": 9539,
  "bacon</w>": 9689,
  "bacteria</w>": 23765,
  "bacterial</w>": 39517,
  "bacy</w>": 37033,
  "bad": 20297,
  "bad</w>": 1498,
  "badass</w>": 16516,
  "bade</w>": 20287,
  "badg": 38021,
  "badge</w>": 11598,
  "badger</w>": 25382,
  "badges</w>": 27534,
  "badly</w>": 4279,
  "baer</w>": 27983,
  "baf": 11819,
  "baffled</w>": 14222,
  "baffling</w>": 37933,
  "bag": 3565,
  "bag</w>": 2165,
  "bage</w>": 8069,
  "bagel</w>": 23813,
  "bagels</w>": 38761,
  "baggage</w>": 15665,
  "bagged</w>": 26073,
  "baggie</w>": 37932,
  "baggy</w>": 17408,
  "bagh": 35993,
  "bags</w>": 4619,
  "bagu": 39200,
  "bah": 27810,
  "bah</w>": 21573,
  "baha": 25381,
  "bahamas</w>": 29129,
  "bai</w>": 27563,
  "bail</w>": 14158,
  "bailed</w>": 25893,
  "bailey</w>": 13839,
  "bailiff</w>": 33019,
  "bailing</w>": 35817,
  "bain</w>": 28386,
  "bair": 37863,
  "baird</w>": 23407,
  "bait</w>": 10938,
  "baited</w>": 34681,
  "baiting</w>": 31933,
  "bak": 14322,
  "bake</w>": 19007,
  "baked</w>": 12187,
  "baker</w>": 12313,
  "bakery</w>": 16198,
  "baking</w>": 15473,
  "bal": 1742,
  "bal</w>": 6131,
  "bala</w>": 27936,
  "balac": 39199,
  "balan</w>": 28574,
  "balance</w>": 4761,
  "balanced</w>": 10512,
  "balances</w>": 39372,
  "balancing</w>": 17123,
  "balcon": 6657,
  "balconies</w>": 26814,
  "balcony</w>": 6998,
  "bald</w>": 9005,
  "balding</w>": 20565,
  "baldur</w>": 26901,
  "baldwin</w>": 22384,
  "bale</w>": 30133,
  "baleful</w>": 37149,
  "bales</w>": 31044,
  "baley</w>": 17158,
  "balk</w>": 39240,
  "balked</w>": 28314,
  "ball": 9552,
  "ball</w>": 2215,
  "ballad</w>": 36777,
  "balled</w>": 13295,
  "ballerina</w>": 30936,
  "ballet</w>": 16376,
  "balling</w>": 26381,
  "ballistic</w>": 30423,
  "ballo": 10396,
  "balloon</w>": 13774,
  "balloons</w>": 19402,
  "ballroom</w>": 11752,
  "balls</w>": 4537,
  "balm</w>": 25798,
  "balmy</w>": 34142,
  "balt</w>": 25737,
  "baltha": 15436,
  "balthazar</w>": 16598,
  "baltimore</w>": 26312,
  "balu": 32371,
  "balustra": 34933,
  "balustrade</w>": 37488,
  "bam": 21572,
  "bam</w>": 22289,
  "bama</w>": 29367,
  "bamb": 30835,
  "bambi</w>": 35162,
  "bamboo</w>": 23708,
  "ban": 2853,
  "ban</w>": 6956,
  "banana</w>": 16296,
  "bananas</w>": 27593,
  "banc": 27340,
  "bancroft</w>": 29206,
  "band": 5284,
  "band</w>": 1997,
  "bandage</w>": 11459,
  "bandaged</w>": 17382,
  "bandages</w>": 13500,
  "bandana</w>": 29739,
  "bandanna</w>": 36477,
  "banded</w>": 23531,
  "bander</w>": 39403,
  "bandit</w>": 24578,
  "bandits</w>": 18303,
  "bands</w>": 8677,
  "bane</w>": 11879,
  "bang": 6226,
  "bang</w>": 8700,
  "banged</w>": 10356,
  "banging</w>": 10634,
  "bangkok</w>": 34907,
  "bangor</w>": 34932,
  "bangs</w>": 15303,
  "bani": 10805,
  "banish</w>": 23220,
  "banished</w>": 16735,
  "banishing</w>": 37552,
  "banishment</w>": 39635,
  "banister</w>": 22484,
  "banjo</w>": 40142,
  "bank": 12524,
  "bank</w>": 4090,
  "banked</w>": 21880,
  "banker</w>": 18806,
  "bankers</w>": 30505,
  "banking</w>": 22007,
  "bankrup": 29808,
  "bankrupt": 32509,
  "bankrupt</w>": 32700,
  "bankruptcy</w>": 33126,
  "banks</w>": 9064,
  "bann": 31518,
  "banned</w>": 21872,
  "banner</w>": 16312,
  "banners</w>": 22585,
  "banni": 38760,
  "banquet</w>": 18783,
  "bans</w>": 30756,
  "banshe": 19367,
  "banshee</w>": 21157,
  "banter</w>": 17244,
  "bap": 16044,
  "bapti": 16582,
  "baptism</w>": 37070,
  "baptist</w>": 30916,
  "baptized</w>": 36214,
  "bar": 1053,
  "bar</w>": 2320,
  "bara": 39158,
  "bara</w>": 37746,
  "barabas</w>": 38723,
  "barack</w>": 35465,
  "barak</w>": 19412,
  "barb</w>": 20081,
  "barba": 36278,
  "barbados</w>": 40220,
  "barbar": 8195,
  "barbara</w>": 11774,
  "barbarian</w>": 22374,
  "barbarians</w>": 30108,
  "barbaric</w>": 26538,
  "barbat": 38527,
  "barbe": 14157,
  "barbecue</w>": 19276,
  "barbed</w>": 19684,
  "barbeque</w>": 29619,
  "barber</w>": 26784,
  "barbie</w>": 14105,
  "barbs</w>": 33385,
  "barcel": 38270,
  "barcelona</w>": 38526,
  "barclay</w>": 33743,
  "bard</w>": 13826,
  "bards</w>": 40094,
  "bare": 12658,
  "bare</w>": 3377,
  "bared</w>": 11029,
  "barefoot</w>": 14701,
  "barely</w>": 2225,
  "barest</w>": 22500,
  "bargain</w>": 10794,
  "bargained</w>": 30801,
  "bargaining</w>": 24736,
  "barge</w>": 19662,
  "barged</w>": 25024,
  "barges</w>": 35057,
  "barging</w>": 31541,
  "bari</w>": 36123,
  "barin": 36277,
  "baring</w>": 18183,
  "barinthus</w>": 37663,
  "barista</w>": 37523,
  "barit": 20673,
  "baritone</w>": 20865,
  "bark</w>": 8919,
  "barked</w>": 7656,
  "barkeep</w>": 36876,
  "barker</w>": 24360,
  "barking</w>": 11399,
  "barks</w>": 20446,
  "barley</w>": 34044,
  "barlow</w>": 38560,
  "barmaid</w>": 33125,
  "barman</w>": 24566,
  "barn": 23764,
  "barn</w>": 6076,
  "barnab": 24382,
  "barnabas</w>": 33234,
  "barnaby</w>": 35688,
  "barnes</w>": 17505,
  "barnett</w>": 39547,
  "barney</w>": 17534,
  "barns</w>": 20849,
  "baron</w>": 12035,
  "baroness</w>": 35583,
  "barr</w>": 25830,
  "barracks</w>": 15695,
  "barrage</w>": 18909,
  "barre": 9507,
  "barred</w>": 16451,
  "barrel</w>": 7300,
  "barreled</w>": 20086,
  "barreling</w>": 23483,
  "barrels</w>": 15639,
  "barren</w>": 14021,
  "barret</w>": 35437,
  "barrett</w>": 16994,
  "barri": 9643,
  "barrica": 23317,
  "barricade</w>": 20785,
  "barricaded</w>": 37487,
  "barricades</w>": 32044,
  "barrier</w>": 8276,
  "barriers</w>": 16425,
  "barring</w>": 29388,
  "barris</w>": 38680,
  "barron</w>": 29716,
  "barrow</w>": 24837,
  "barrows</w>": 32831,
  "barry</w>": 10390,
  "bars</w>": 5639,
  "barstool</w>": 27220,
  "bart</w>": 11846,
  "bartender</w>": 9046,
  "bartenders</w>": 37862,
  "barter</w>": 32299,
  "bartholo": 20627,
  "bartholomew</w>": 20672,
  "bartie</w>": 39845,
  "bartle": 37195,
  "barton</w>": 21413,
  "bas": 2911,
  "bas</w>": 23623,
  "basalt</w>": 33233,
  "base": 7362,
  "base</w>": 3888,
  "baseball</w>": 7896,
  "based</w>": 5945,
  "basement</w>": 6420,
  "bases</w>": 19555,
  "bash": 21881,
  "bash</w>": 19420,
  "basha</w>": 12264,
  "bashed</w>": 27791,
  "bashful</w>": 35128,
  "bashing</w>": 30132,
  "basi": 5874,
  "basia</w>": 32298,
  "basic</w>": 7927,
  "basically</w>": 7820,
  "basics</w>": 19080,
  "basil</w>": 20323,
  "basilica</w>": 28554,
  "basin</w>": 14182,
  "basis</w>": 9351,
  "bask</w>": 31674,
  "basked</w>": 35163,
  "basket": 10668,
  "basket</w>": 7246,
  "basketball</w>": 10886,
  "baskets</w>": 19145,
  "basking</w>": 27237,
  "basque</w>": 39402,
  "bass</w>": 10727,
  "bast": 3984,
  "bast</w>": 40388,
  "bastar": 10040,
  "bastard</w>": 4212,
  "bastards</w>": 10310,
  "basti": 21483,
  "bastian</w>": 4627,
  "bastien</w>": 24028,
  "bastille</w>": 21412,
  "bastion</w>": 30069,
  "bat": 2166,
  "bat</w>": 7322,
  "bata</w>": 30712,
  "batch</w>": 17588,
  "bate</w>": 25208,
  "bated</w>": 29287,
  "bates</w>": 11936,
  "bath": 2566,
  "bath</w>": 6133,
  "bathe</w>": 17958,
  "bathed</w>": 11852,
  "bathing</w>": 12089,
  "bathro": 13555,
  "bathrobe</w>": 21254,
  "bathroom</w>": 2790,
  "bathrooms</w>": 19399,
  "baths</w>": 23337,
  "bathtub</w>": 17789,
  "bating</w>": 39548,
  "bation</w>": 32194,
  "batman</w>": 29633,
  "baton</w>": 21519,
  "bats</w>": 13573,
  "batt": 5424,
  "battalion</w>": 23336,
  "batted</w>": 19101,
  "batter</w>": 22306,
  "battered</w>": 9631,
  "batteries</w>": 16822,
  "battering</w>": 24672,
  "battery</w>": 11609,
  "batting</w>": 20404,
  "battle": 9491,
  "battle</w>": 3032,
  "battled</w>": 17567,
  "battlefield</w>": 13509,
  "battlements</w>": 27000,
  "battles</w>": 11587,
  "battleship</w>": 40268,
  "battling</w>": 15552,
  "batya</w>": 36446,
  "bau": 14413,
  "bauer</w>": 30322,
  "baum</w>": 39591,
  "baw": 38341,
  "bawled</w>": 36447,
  "bawling</w>": 27339,
  "bax</w>": 16137,
  "baxter</w>": 16060,
  "bay": 14631,
  "bay</w>": 4933,
  "baya</w>": 30521,
  "baycliff</w>": 26928,
  "baye</w>": 37415,
  "bayon": 29654,
  "bayonet</w>": 39401,
  "bayou</w>": 29130,
  "bays</w>": 32130,
  "baz</w>": 38637,
  "bazaar</w>": 33101,
  "bb": 1494,
  "bb</w>": 17404,
  "bbc</w>": 34603,
  "bbe</w>": 34553,
  "bbean</w>": 19322,
  "bbed</w>": 1482,
  "bber": 23124,
  "bber</w>": 7292,
  "bbered</w>": 34350,
  "bbering</w>": 24277,
  "bbers</w>": 37032,
  "bbery</w>": 12235,
  "bbi": 14674,
  "bbing</w>": 2426,
  "bbins</w>": 39088,
  "bbish</w>": 16565,
  "bbit</w>": 8055,
  "bble</w>": 4399,
  "bbled</w>": 5263,
  "bbler</w>": 27849,
  "bbles</w>": 8074,
  "bbling</w>": 7074,
  "bbly</w>": 15810,
  "bbs</w>": 17357,
  "bby</w>": 3067,
  "bc</w>": 21692,
  "bd": 34847,
  "bdsm</w>": 40048,
  "be": 528,
  "be</w>": 580,
  "bea": 1282,
  "bea</w>": 22911,
  "beach": 30915,
  "beach</w>": 3620,
  "beached</w>": 39239,
  "beaches</w>": 21104,
  "beacon</w>": 15147,
  "beacons</w>": 38269,
  "bead</w>": 18238,
  "beaded</w>": 17353,
  "beading</w>": 30734,
  "beads</w>": 12244,
  "beady</w>": 23110,
  "beagle</w>": 38020,
  "beak</w>": 17065,
  "beaker</w>": 39748,
  "beaks</w>": 39471,
  "beale</w>": 36187,
  "beam</w>": 7642,
  "beamed</w>": 9628,
  "beaming</w>": 12254,
  "beams</w>": 9910,
  "bean": 31307,
  "bean</w>": 16201,
  "beanie</w>": 38102,
  "beans</w>": 11007,
  "bear": 3838,
  "bear</w>": 3493,
  "bearable</w>": 26055,
  "beard</w>": 5967,
  "bearded</w>": 14849,
  "beards</w>": 29366,
  "bearer</w>": 19880,
  "bearers</w>": 27690,
  "bearing</w>": 7925,
  "bearings</w>": 16910,
  "bearl</w>": 33384,
  "bears</w>": 11804,
  "beast</w>": 4313,
  "beastly</w>": 34845,
  "beasts</w>": 9120,
  "beat": 10323,
  "beat</w>": 2523,
  "beaten</w>": 7904,
  "beater</w>": 31979,
  "beating</w>": 4869,
  "beatings</w>": 28874,
  "beatles</w>": 34077,
  "beatri": 29421,
  "beatrice</w>": 14533,
  "beatrix</w>": 37693,
  "beats</w>": 9048,
  "beau": 1587,
  "beau</w>": 10971,
  "beaumont</w>": 24405,
  "beauti": 1824,
  "beauties</w>": 32589,
  "beautiful</w>": 1871,
  "beautifully</w>": 11778,
  "beauty</w>": 4037,
  "beautyman</w>": 29092,
  "beaver</w>": 24194,
  "bebe</w>": 39400,
  "bec</w>": 24752,
  "became</w>": 2259,
  "because</w>": 912,
  "becca</w>": 5600,
  "beck": 8198,
  "beck</w>": 10411,
  "becka</w>": 40428,
  "becker</w>": 20119,
  "beckett</w>": 35034,
  "beckoned</w>": 12932,
  "beckoning</w>": 18142,
  "beckons</w>": 40267,
  "becks</w>": 38453,
  "becky</w>": 8769,
  "become</w>": 2150,
  "becomes</w>": 8062,
  "becoming</w>": 4236,
  "bed": 2173,
  "bed</w>": 943,
  "bedchamber</w>": 20671,
  "bedclothes</w>": 35464,
  "bedded</w>": 11660,
  "bedding</w>": 16808,
  "bedford</w>": 35896,
  "bediah</w>": 34487,
  "bedlam</w>": 36408,
  "bedpost</w>": 33852,
  "bedraggled</w>": 31603,
  "bedro": 10723,
  "bedroll</w>": 35841,
  "bedroom</w>": 2499,
  "bedrooms</w>": 12286,
  "beds</w>": 8731,
  "bedside</w>": 9655,
  "bedspread</w>": 25477,
  "bedtime</w>": 19125,
  "bee": 10358,
  "bee</w>": 10117,
  "beech</w>": 31128,
  "beef": 21899,
  "beef</w>": 11434,
  "beefy</w>": 26027,
  "beel": 28966,
  "beeline</w>": 25154,
  "beelzebub</w>": 31559,
  "been": 28943,
  "been</w>": 694,
  "beenay</w>": 37111,
  "beep": 12833,
  "beep</w>": 15796,
  "beeped</w>": 18116,
  "beeping</w>": 21421,
  "beeps</w>": 28809,
  "beer</w>": 3442,
  "beers</w>": 12767,
  "bees</w>": 14112,
  "beesely</w>": 27109,
  "beet": 26330,
  "beet</w>": 31578,
  "beetho": 39050,
  "beethoven</w>": 39087,
  "beetle</w>": 21180,
  "beetles</w>": 31260,
  "beezer</w>": 40345,
  "befall</w>": 36409,
  "befallen</w>": 36816,
  "befitting</w>": 37662,
  "before": 20153,
  "before</w>": 781,
  "beforehand</w>": 21273,
  "befrien": 30577,
  "befriend</w>": 34966,
  "befriended</w>": 34657,
  "befu": 27658,
  "befuddled</w>": 31422,
  "beg": 1094,
  "beg</w>": 6568,
  "began</w>": 1351,
  "begg": 25642,
  "beggar</w>": 24444,
  "beggars</w>": 26783,
  "begged</w>": 6500,
  "begging</w>": 6825,
  "begin": 17231,
  "begin</w>": 3226,
  "beginner</w>": 40141,
  "beginning</w>": 2827,
  "beginnings</w>": 18517,
  "begins</w>": 6033,
  "begotten</w>": 39883,
  "begru": 21728,
  "begrudge</w>": 37861,
  "begrudgingly</w>": 32647,
  "begs</w>": 25960,
  "begu": 34931,
  "beguiling</w>": 40184,
  "begun</w>": 4827,
  "beh": 38415,
  "beha": 4758,
  "behalf</w>": 11123,
  "behave</w>": 11014,
  "behaved</w>": 15579,
  "behavi": 5226,
  "behaving</w>": 18143,
  "behavior</w>": 5924,
  "behaviors</w>": 37031,
  "behaviour</w>": 16495,
  "behe": 26596,
  "beheaded</w>": 32858,
  "beheld</w>": 24825,
  "behemoth</w>": 28982,
  "behind</w>": 1043,
  "behold</w>": 16350,
  "bei": 24589,
  "beige</w>": 16050,
  "beijing</w>": 31043,
  "bein</w>": 15881,
  "being</w>": 1036,
  "beings</w>": 8203,
  "bek</w>": 26329,
  "bekah</w>": 28369,
  "bel": 898,
  "bel</w>": 4320,
  "beladors</w>": 36445,
  "belated</w>": 40047,
  "belatedly</w>": 21490,
  "belch</w>": 28887,
  "belched</w>": 30935,
  "belching</w>": 39964,
  "beldin</w>": 23406,
  "belgarath</w>": 12761,
  "belgarion</w>": 35463,
  "belgian</w>": 40093,
  "belgium</w>": 38974,
  "beli": 2376,
  "belial</w>": 39716,
  "belie": 1360,
  "belied</w>": 27409,
  "belief</w>": 4719,
  "beliefs</w>": 15018,
  "believ": 4210,
  "believable</w>": 22483,
  "believe</w>": 1441,
  "believed</w>": 3339,
  "believer</w>": 22684,
  "believers</w>": 27734,
  "believes</w>": 10053,
  "believing</w>": 7408,
  "belinda</w>": 13824,
  "belis": 27965,
  "belit": 32214,
  "bell": 22168,
  "bell</w>": 4178,
  "bella": 21594,
  "bella</w>": 5178,
  "bellamy</w>": 28106,
  "belle": 37194,
  "belle</w>": 5726,
  "belli": 19186,
  "bellied</w>": 33742,
  "bellies</w>": 24682,
  "belliger": 22188,
  "belligerent</w>": 29176,
  "bellon": 40427,
  "bellow</w>": 21862,
  "bellowed</w>": 10664,
  "bellowing</w>": 23058,
  "bellows</w>": 25580,
  "bells</w>": 10067,
  "bellum</w>": 35785,
  "belly</w>": 3994,
  "belo": 8375,
  "belon": 4063,
  "belong</w>": 6175,
  "belonged</w>": 5740,
  "belonging</w>": 16367,
  "belongings</w>": 12206,
  "belongs</w>": 10595,
  "beloved</w>": 8660,
  "below</w>": 2580,
  "bels</w>": 39673,
  "belt</w>": 4047,
  "belted</w>": 23763,
  "belter</w>": 33980,
  "belts</w>": 16197,
  "bemused</w>": 17920,
  "ben": 1476,
  "ben</w>": 2782,
  "bench</w>": 4900,
  "benches</w>": 13582,
  "bend</w>": 7289,
  "bender</w>": 27750,
  "bending</w>": 8507,
  "bends</w>": 16358,
  "bene": 24659,
  "bene</w>": 20646,
  "beneath</w>": 2219,
  "bened": 15722,
  "benedic": 38414,
  "benedict</w>": 17437,
  "benef": 5731,
  "benefactor</w>": 30421,
  "beneficial</w>": 25627,
  "benefit</w>": 7750,
  "benefited</w>": 38559,
  "benefits</w>": 13244,
  "benevolent</w>": 26266,
  "benign</w>": 26238,
  "benja": 11654,
  "benjamin</w>": 11765,
  "benji</w>": 17131,
  "benjy</w>": 29482,
  "bennac": 37776,
  "bennacio</w>": 38221,
  "bennett</w>": 11719,
  "bennie</w>": 34486,
  "benny</w>": 11058,
  "bens</w>": 33336,
  "benson</w>": 17170,
  "bent</w>": 3168,
  "benteley</w>": 40475,
  "bentley</w>": 21593,
  "benton</w>": 38870,
  "beow": 27455,
  "beowulf</w>": 27533,
  "beppe</w>": 39965,
  "ber": 1527,
  "ber</w>": 3065,
  "berana": 28911,
  "beranabus</w>": 28912,
  "berate</w>": 39086,
  "berated</w>": 31628,
  "berating</w>": 34429,
  "bercelak</w>": 31024,
  "bere": 25456,
  "bered</w>": 32300,
  "bereft</w>": 26595,
  "beren": 32065,
  "beren</w>": 31105,
  "beret</w>": 34170,
  "beretta</w>": 25881,
  "berg": 32064,
  "berg</w>": 8937,
  "berger</w>": 22281,
  "beria</w>": 28692,
  "bering</w>": 32268,
  "berit</w>": 29549,
  "berkeley</w>": 28089,
  "berlin</w>": 21059,
  "berly</w>": 20901,
  "berman</w>": 32193,
  "bermuda</w>": 34169,
  "bern": 35346,
  "bern</w>": 25493,
  "bernam</w>": 38525,
  "bernar": 26750,
  "bernard</w>": 11491,
  "bernardo</w>": 33650,
  "bernice</w>": 37148,
  "bernie</w>": 21548,
  "berries</w>": 11125,
  "berry</w>": 6449,
  "bers</w>": 11320,
  "berser": 23643,
  "berserk</w>": 33335,
  "berserker</w>": 39844,
  "bert</w>": 3333,
  "berth</w>": 20549,
  "bertha</w>": 29263,
  "bertie</w>": 17088,
  "bertram</w>": 33901,
  "bertrand</w>": 35495,
  "berty</w>": 26767,
  "bery</w>": 36055,
  "bes</w>": 5584,
  "besee": 25892,
  "beseeching</w>": 38220,
  "beside</w>": 1907,
  "besides</w>": 2838,
  "besie": 31888,
  "besieged</w>": 35784,
  "beso": 34846,
  "besotted</w>": 35614,
  "bess</w>": 17514,
  "bessie</w>": 28107,
  "best": 30422,
  "best</w>": 1432,
  "bested</w>": 32568,
  "besti": 33716,
  "bestial</w>": 40219,
  "besto": 33419,
  "bestow</w>": 33550,
  "bestowed</w>": 23074,
  "bet": 37983,
  "bet</w>": 3535,
  "beta</w>": 11994,
  "beth": 7970,
  "beth</w>": 2515,
  "bethanne</w>": 20679,
  "bethany</w>": 9449,
  "bethel</w>": 15564,
  "bethy</w>": 23950,
  "betra": 4403,
  "betray</w>": 11461,
  "betrayal</w>": 9842,
  "betrayed</w>": 7611,
  "betraying</w>": 16142,
  "betro": 17755,
  "betrothal</w>": 30733,
  "betrothed</w>": 23258,
  "bets</w>": 19306,
  "betsy</w>": 16043,
  "bett": 23727,
  "bett</w>": 28357,
  "bette</w>": 37718,
  "better": 39590,
  "better</w>": 1198,
  "bettina</w>": 25222,
  "betting</w>": 16165,
  "betty</w>": 11999,
  "betw": 1207,
  "between</w>": 1210,
  "bev</w>": 14696,
  "bever": 11303,
  "beverage</w>": 23916,
  "beverages</w>": 33696,
  "beverly</w>": 15989,
  "bevier</w>": 28160,
  "beware</w>": 24693,
  "bewil": 8832,
  "bewilder": 17202,
  "bewildered</w>": 11531,
  "bewildering</w>": 40426,
  "bewilderment</w>": 17483,
  "bewitched</w>": 35933,
  "bex</w>": 15451,
  "bey": 2414,
  "bey</w>": 9453,
  "beyond</w>": 2429,
  "bff</w>": 37196,
  "bfg</w>": 33823,
  "bg</w>": 35584,
  "bh</w>": 37489,
  "bha": 34351,
  "bhelliom</w>": 27493,
  "bi": 979,
  "bi</w>": 5593,
  "bia</w>": 15297,
  "bial</w>": 23189,
  "bian</w>": 20432,
  "bianca</w>": 15885,
  "bianka</w>": 33151,
  "bians</w>": 39198,
  "bias</w>": 13663,
  "biased</w>": 30304,
  "bib</w>": 40474,
  "bible</w>": 9556,
  "bibli": 24266,
  "biblical</w>": 26900,
  "bic": 6499,
  "bic</w>": 12788,
  "bicep</w>": 18964,
  "biceps</w>": 13342,
  "bick": 13591,
  "bickel</w>": 25736,
  "bicker": 34656,
  "bickering</w>": 24193,
  "bickerstaff</w>": 35082,
  "bicy": 14806,
  "bicycle</w>": 17668,
  "bicycles</w>": 34043,
  "bid</w>": 6884,
  "bidden</w>": 9273,
  "bidder</w>": 34453,
  "bidding</w>": 12676,
  "biddy</w>": 35083,
  "bide</w>": 35056,
  "biding</w>": 33956,
  "bids</w>": 26749,
  "bie</w>": 4060,
  "bies</w>": 6722,
  "biffy</w>": 28942,
  "big": 16846,
  "big</w>": 1393,
  "bigfoot</w>": 31080,
  "bigger</w>": 4377,
  "biggest</w>": 6085,
  "biggie</w>": 39589,
  "bike</w>": 5697,
  "biker</w>": 17671,
  "bikers</w>": 25476,
  "bikes</w>": 15511,
  "bikin": 12319,
  "bikini</w>": 13204,
  "bikinis</w>": 37820,
  "bil": 1860,
  "bil</w>": 14802,
  "bilbo</w>": 27395,
  "bile</w>": 5986,
  "bilities</w>": 7164,
  "bility</w>": 3258,
  "bill": 22535,
  "bill</w>": 3670,
  "billboard</w>": 31306,
  "billi": 30288,
  "billie</w>": 16633,
  "billing</w>": 39672,
  "billings</w>": 26403,
  "billion": 39371,
  "billion</w>": 13160,
  "billionaire</w>": 16219,
  "billions</w>": 17639,
  "billowed</w>": 21837,
  "billowing</w>": 18070,
  "bills</w>": 8381,
  "billy</w>": 4439,
  "bilo": 36615,
  "bilt</w>": 36476,
  "bimbo</w>": 32621,
  "bin": 6375,
  "bin</w>": 7531,
  "bind</w>": 13965,
  "binder</w>": 23032,
  "binding</w>": 12577,
  "bindings</w>": 28071,
  "binds</w>": 32857,
  "bine</w>": 21611,
  "bines</w>": 30696,
  "bing</w>": 4256,
  "binge</w>": 38142,
  "bingo</w>": 21127,
  "bino</w>": 32742,
  "binocu": 13977,
  "binoculars</w>": 14129,
  "bins</w>": 25143,
  "bio": 6731,
  "bio</w>": 17924,
  "biography</w>": 28015,
  "biological</w>": 13737,
  "biologist</w>": 36475,
  "biology</w>": 17876,
  "bion</w>": 38759,
  "biotic</w>": 35895,
  "biotics</w>": 26054,
  "bir": 2054,
  "birch</w>": 23936,
  "bird": 20591,
  "bird</w>": 4375,
  "birdie</w>": 27603,
  "birds</w>": 5342,
  "birgitte</w>": 38299,
  "birmingham</w>": 29251,
  "birth": 4588,
  "birth</w>": 5243,
  "birthday</w>": 5012,
  "birthdays</w>": 27316,
  "birthed</w>": 35816,
  "birthing</w>": 30441,
  "birthmark</w>": 28223,
  "birthright</w>": 32213,
  "births</w>": 34403,
  "bis</w>": 14442,
  "biscu": 12753,
  "biscuit</w>": 21118,
  "biscuits</w>": 17002,
  "bise": 38636,
  "bishop</w>": 9524,
  "bison</w>": 29738,
  "bistro</w>": 35231,
  "bit": 1977,
  "bit</w>": 1378,
  "bitch</w>": 3885,
  "bitches</w>": 18222,
  "bitching</w>": 30107,
  "bitchy</w>": 24780,
  "bite</w>": 3473,
  "bited</w>": 11319,
  "bites</w>": 9530,
  "biting</w>": 6113,
  "bition</w>": 19959,
  "bitions</w>": 26730,
  "bits</w>": 5333,
  "bitsy</w>": 36122,
  "bitten</w>": 11099,
  "bitter": 7125,
  "bitter</w>": 6290,
  "bitterly</w>": 10911,
  "bitterness</w>": 12421,
  "bittersweet</w>": 23874,
  "bitty</w>": 40046,
  "bixby</w>": 34782,
  "bizar": 9593,
  "bizarre</w>": 9960,
  "bj</w>": 38454,
  "bjor": 20592,
  "bjorn</w>": 24004,
  "bjur": 37901,
  "bjurman</w>": 38340,
  "bl": 865,
  "bla": 1551,
  "blac": 21058,
  "black": 3760,
  "black</w>": 1301,
  "blackberry</w>": 21117,
  "blackboard</w>": 34844,
  "blackburn</w>": 31305,
  "blacked</w>": 20917,
  "blackened</w>": 12332,
  "blacker</w>": 33605,
  "blackie</w>": 26833,
  "blackjack</w>": 29010,
  "blackmail</w>": 17110,
  "blackmailed</w>": 33268,
  "blackmailing</w>": 32762,
  "blackness</w>": 9133,
  "blackout</w>": 28941,
  "blacks</w>": 21287,
  "blacksmith</w>": 24620,
  "blackstone</w>": 34965,
  "blacktop</w>": 32089,
  "blackwell</w>": 27301,
  "blackwood</w>": 37414,
  "blacky</w>": 36776,
  "bladder</w>": 22219,
  "blade</w>": 3623,
  "bladed</w>": 32485,
  "blades</w>": 7644,
  "blaed</w>": 39843,
  "blah</w>": 13354,
  "blaine</w>": 16663,
  "blair</w>": 22319,
  "blaire</w>": 18982,
  "blaise</w>": 24792,
  "blake</w>": 4592,
  "blakely</w>": 28523,
  "blalok</w>": 40473,
  "blame</w>": 4288,
  "blamed</w>": 10925,
  "blames</w>": 30800,
  "blaming</w>": 17412,
  "blan": 5373,
  "blanc</w>": 27733,
  "blanca</w>": 37110,
  "blanche</w>": 24404,
  "blanched</w>": 21070,
  "blanco</w>": 33309,
  "bland": 25891,
  "bland</w>": 16357,
  "blandly</w>": 27175,
  "blank": 3903,
  "blank</w>": 5252,
  "blanked</w>": 32192,
  "blanket</w>": 4436,
  "blanketed</w>": 25434,
  "blanketing</w>": 38101,
  "blankets</w>": 7814,
  "blankly</w>": 11085,
  "blankness</w>": 38061,
  "blanks</w>": 28403,
  "blare</w>": 36734,
  "blared</w>": 19912,
  "blaring</w>": 16834,
  "blasp": 22563,
  "blasphe": 29676,
  "blasphem": 34964,
  "blasphemy</w>": 33066,
  "blast</w>": 6109,
  "blasted</w>": 9585,
  "blaster</w>": 20328,
  "blasting</w>": 15389,
  "blasts</w>": 18727,
  "blat": 13248,
  "blatant</w>": 18405,
  "blatantly</w>": 22753,
  "blay</w>": 21643,
  "blaze</w>": 11327,
  "blazed</w>": 12375,
  "blazer</w>": 19538,
  "blazes</w>": 32063,
  "blazing</w>": 9168,
  "blazoned</w>": 24288,
  "ble": 1397,
  "ble</w>": 934,
  "blea": 23545,
  "bleach</w>": 24885,
  "bleached</w>": 19826,
  "bleachers</w>": 17777,
  "bleak</w>": 13560,
  "bleakly</w>": 31861,
  "blear": 38103,
  "blearily</w>": 40092,
  "bleary</w>": 22676,
  "bled": 27602,
  "bled</w>": 5431,
  "bledsoe</w>": 29250,
  "bleed</w>": 11692,
  "bleeding</w>": 5672,
  "bleeds</w>": 28781,
  "blek</w>": 36655,
  "blemi": 29653,
  "blemish</w>": 40045,
  "blemished</w>": 33955,
  "blend</w>": 12172,
  "blended</w>": 16343,
  "blender</w>": 37588,
  "blending</w>": 20941,
  "bler</w>": 14579,
  "bles</w>": 3757,
  "bless</w>": 12730,
  "blessed</w>": 9753,
  "blessedly</w>": 34199,
  "blessing</w>": 10869,
  "blessings</w>": 21407,
  "blets</w>": 29286,
  "bleu</w>": 28990,
  "blew</w>": 4509,
  "bli": 2440,
  "blight</w>": 30215,
  "blin": 2248,
  "blin</w>": 24317,
  "blind": 12444,
  "blind</w>": 5456,
  "blinded</w>": 12062,
  "blindfold</w>": 19079,
  "blindfolded</w>": 24779,
  "blinding</w>": 9645,
  "blindingly</w>": 34781,
  "blindly</w>": 12018,
  "blindness</w>": 26857,
  "blinds</w>": 14173,
  "blindsided</w>": 32620,
  "bling</w>": 8491,
  "blings</w>": 11124,
  "blink</w>": 6612,
  "blinked</w>": 3393,
  "blinking</w>": 6893,
  "blinks</w>": 16320,
  "blip</w>": 29890,
  "bliss": 23726,
  "bliss</w>": 10511,
  "blissful</w>": 19131,
  "blissfully</w>": 24330,
  "blist": 13860,
  "blister</w>": 34508,
  "blistered</w>": 27884,
  "blistering</w>": 23899,
  "blisters</w>": 24218,
  "blit": 31579,
  "blithely</w>": 34402,
  "blizzard</w>": 21360,
  "blo": 1941,
  "blo</w>": 36121,
  "bloated</w>": 21802,
  "blob</w>": 25373,
  "blobs</w>": 38904,
  "block": 22874,
  "block</w>": 4241,
  "blockade</w>": 34168,
  "blocked</w>": 6935,
  "blocking</w>": 8010,
  "blocks</w>": 6470,
  "blocky</w>": 39441,
  "blod</w>": 32790,
  "blog": 36248,
  "blog</w>": 16023,
  "blogs</w>": 40091,
  "blogspot": 37982,
  "blogspot.com</w>": 40472,
  "bloke</w>": 19075,
  "blokes</w>": 35345,
  "blomkvist</w>": 16758,
  "blon": 4692,
  "blond</w>": 4506,
  "blonde</w>": 5009,
  "blondes</w>": 30855,
  "blondie</w>": 29501,
  "bloo": 1202,
  "blood": 5588,
  "blood</w>": 1377,
  "bloodbath</w>": 36938,
  "blooded</w>": 15600,
  "bloodhound</w>": 40044,
  "bloodied</w>": 15034,
  "bloodless</w>": 32567,
  "bloodline</w>": 20085,
  "bloodlines</w>": 34225,
  "bloodlust</w>": 21825,
  "bloodred</w>": 35287,
  "bloods</w>": 28900,
  "bloodshed</w>": 22808,
  "bloodshot</w>": 17513,
  "bloodstained</w>": 26942,
  "bloodstains</w>": 37413,
  "bloodstream</w>": 22919,
  "bloodsucker</w>": 36578,
  "bloodthirsty</w>": 25275,
  "bloody</w>": 3714,
  "bloom": 36510,
  "bloom</w>": 14255,
  "bloomed</w>": 17974,
  "blooming</w>": 19864,
  "blooms</w>": 26639,
  "blos": 9686,
  "blossom": 12472,
  "blossom</w>": 17130,
  "blossomed</w>": 20972,
  "blossoming</w>": 30090,
  "blossoms</w>": 20134,
  "blot</w>": 26404,
  "blotchy</w>": 37109,
  "blotted</w>": 27562,
  "blotting</w>": 33900,
  "blouse</w>": 8469,
  "blouses</w>": 36579,
  "blow": 19030,
  "blow</w>": 3672,
  "blowing</w>": 6514,
  "blowjob</w>": 39842,
  "blown</w>": 6946,
  "blows</w>": 8955,
  "blu": 1418,
  "blubbering</w>": 34109,
  "blue": 12698,
  "blue</w>": 1674,
  "blueberry</w>": 26433,
  "bluep": 23990,
  "blueprint</w>": 37108,
  "blueprints</w>": 31444,
  "blues</w>": 15231,
  "bluff</w>": 14327,
  "bluffing</w>": 25591,
  "bluffs</w>": 38100,
  "bluish</w>": 23011,
  "blun": 13484,
  "blunder</w>": 34379,
  "blunt</w>": 12133,
  "bluntly</w>": 15278,
  "bluntness</w>": 39325,
  "blur": 4428,
  "blur</w>": 7954,
  "blurred</w>": 9879,
  "blurring</w>": 20311,
  "blurry</w>": 13976,
  "blurs</w>": 35742,
  "blurt</w>": 19842,
  "blurted</w>": 8009,
  "blurting</w>": 35992,
  "blurts</w>": 36120,
  "blush</w>": 7978,
  "blushed</w>": 7784,
  "blushes</w>": 30876,
  "blushing</w>": 11530,
  "bluster</w>": 36342,
  "bly</w>": 2085,
  "blythe</w>": 22927,
  "bm": 16905,
  "bmw</w>": 17894,
  "bn</w>": 28991,
  "bo": 611,
  "bo</w>": 5546,
  "boa": 14497,
  "boa</w>": 32680,
  "boar": 7003,
  "boar</w>": 20163,
  "board": 18571,
  "board</w>": 2464,
  "boarded</w>": 13228,
  "boardin": 37819,
  "boarding</w>": 12370,
  "boardinghouse</w>": 38973,
  "boardroom</w>": 29834,
  "boards</w>": 7112,
  "boardwalk</w>": 25259,
  "boast</w>": 27790,
  "boasted</w>": 19130,
  "boasting</w>": 30174,
  "boat": 26510,
  "boat</w>": 3308,
  "boath": 31978,
  "boathouse</w>": 32022,
  "boating</w>": 38722,
  "boats</w>": 8353,
  "bob": 16349,
  "bob</w>": 4971,
  "bobb": 20971,
  "bobbed</w>": 13069,
  "bobbi</w>": 23272,
  "bobbie</w>": 19314,
  "bobbing</w>": 14371,
  "bobby</w>": 6583,
  "bobo</w>": 21723,
  "bobs</w>": 31977,
  "bod": 30379,
  "bod</w>": 22477,
  "bode</w>": 23316,
  "bodice</w>": 16807,
  "bodied</w>": 16909,
  "bodies</w>": 3126,
  "bodily</w>": 17489,
  "bodo</w>": 22167,
  "body": 8438,
  "body</w>": 956,
  "bodyguard</w>": 11990,
  "bodyguards</w>": 15993,
  "boffin</w>": 24884,
  "bog</w>": 23642,
  "bogan</w>": 40266,
  "bogey</w>": 39796,
  "boggling</w>": 38758,
  "bogus</w>": 31240,
  "boh": 40090,
  "boi": 24241,
  "boil</w>": 14057,
  "boiled</w>": 12193,
  "boiler</w>": 26311,
  "boiling</w>": 11468,
  "boils</w>": 29420,
  "bois</w>": 24961,
  "boise</w>": 32994,
  "boisterous</w>": 26432,
  "bol": 3469,
  "bold</w>": 8865,
  "bolder</w>": 28342,
  "boldly</w>": 17619,
  "boldness</w>": 30106,
  "bollocks</w>": 34198,
  "bolog": 36474,
  "bologna</w>": 39671,
  "bolster</w>": 32761,
  "bolstered</w>": 38825,
  "bolt</w>": 6336,
  "bolted</w>": 9076,
  "bolting</w>": 25274,
  "bolton</w>": 27160,
  "bolts</w>": 12295,
  "bom": 4486,
  "bomb": 24065,
  "bomb</w>": 7228,
  "bombar": 19202,
  "bombarded</w>": 27202,
  "bombardment</w>": 38339,
  "bombed</w>": 27013,
  "bomber</w>": 25767,
  "bombers</w>": 32993,
  "bombing</w>": 20690,
  "bombs</w>": 12631,
  "bombshell</w>": 29930,
  "bon": 3432,
  "bon</w>": 9054,
  "bona</w>": 36775,
  "bonapar": 37437,
  "bonaparte</w>": 37625,
  "bond": 23715,
  "bond</w>": 4743,
  "bondage</w>": 26176,
  "bonded</w>": 16486,
  "bonding</w>": 19529,
  "bonds</w>": 13889,
  "bone</w>": 3870,
  "boned</w>": 28016,
  "boneless</w>": 31801,
  "boner</w>": 39930,
  "bones</w>": 3549,
  "bonfire</w>": 17807,
  "bonfires</w>": 39516,
  "bong</w>": 36939,
  "bonita</w>": 30695,
  "bonnet</w>": 18396,
  "bonnett</w>": 37352,
  "bonnie</w>": 9280,
  "bonny</w>": 29548,
  "bono</w>": 37860,
  "bonus</w>": 14402,
  "bony</w>": 11471,
  "boo": 1679,
  "boo</w>": 13170,
  "boob</w>": 29083,
  "boobs</w>": 15243,
  "booby</w>": 29715,
  "book": 6565,
  "book.com</w>": 31558,
  "book</w>": 1861,
  "bookcase</w>": 20454,
  "bookcases</w>": 29889,
  "booke</w>": 35815,
  "booked</w>": 13986,
  "booker</w>": 20477,
  "booking</w>": 27878,
  "books</w>": 3017,
  "bookshelf</w>": 20681,
  "bookshelves</w>": 20614,
  "bookstore</w>": 17323,
  "boom</w>": 10187,
  "boomed</w>": 13631,
  "boomer</w>": 29978,
  "booming</w>": 15556,
  "booms</w>": 30068,
  "boon</w>": 23057,
  "boone</w>": 15161,
  "boos</w>": 39399,
  "boost</w>": 18918,
  "boosted</w>": 34008,
  "booster</w>": 37351,
  "boot": 33884,
  "boot</w>": 6390,
  "booted</w>": 17707,
  "booth": 18752,
  "booth</w>": 7062,
  "booths</w>": 19447,
  "boots</w>": 3631,
  "booty</w>": 23482,
  "booze</w>": 13769,
  "bor": 1591,
  "bor</w>": 4874,
  "boranova</w>": 35712,
  "bordeaux</w>": 39324,
  "borden</w>": 35127,
  "border": 20698,
  "border</w>": 8217,
  "bordered</w>": 17914,
  "bordering</w>": 22534,
  "borderline</w>": 28674,
  "borders</w>": 15222,
  "bore": 14240,
  "bore</w>": 7377,
  "bored</w>": 5271,
  "boredom</w>": 15514,
  "borg</w>": 26380,
  "boring</w>": 5724,
  "boris</w>": 20333,
  "born</w>": 3105,
  "borne</w>": 11732,
  "borns</w>": 40183,
  "boro</w>": 26982,
  "borough</w>": 21924,
  "borrow</w>": 11580,
  "borrowed</w>": 12012,
  "borrowing</w>": 28190,
  "bos</w>": 24240,
  "bosom</w>": 18155,
  "boss</w>": 4110,
  "bosses</w>": 22837,
  "bossy</w>": 19366,
  "boston</w>": 8039,
  "bot": 1899,
  "bot</w>": 9330,
  "botched</w>": 34141,
  "both</w>": 1109,
  "bother": 38019,
  "bother</w>": 4043,
  "bothered</w>": 5384,
  "bothering</w>": 7965,
  "bothers</w>": 17966,
  "bots</w>": 19024,
  "bott": 5167,
  "bott</w>": 19144,
  "bottle</w>": 3036,
  "bottled</w>": 18544,
  "bottles</w>": 7007,
  "bottom": 23898,
  "bottom</w>": 2695,
  "bottomless</w>": 25273,
  "bottoms</w>": 16069,
  "bou": 6168,
  "bough</w>": 38791,
  "boughs</w>": 29252,
  "bought</w>": 3828,
  "boul": 8405,
  "boulder</w>": 11455,
  "boulders</w>": 14545,
  "boulevard</w>": 20707,
  "boun": 4195,
  "bounce</w>": 12607,
  "bounced</w>": 7185,
  "bouncer</w>": 18643,
  "bouncers</w>": 33496,
  "bounces</w>": 23633,
  "bouncing</w>": 8679,
  "bouncy</w>": 35126,
  "bound</w>": 4234,
  "boundaries</w>": 13700,
  "boundary</w>": 19179,
  "bounded</w>": 12684,
  "bounding</w>": 20447,
  "boundless</w>": 34007,
  "bounds</w>": 18385,
  "bounty</w>": 13716,
  "bouquet</w>": 15045,
  "bouquets</w>": 37624,
  "bour": 5516,
  "bourbon</w>": 17008,
  "bourg</w>": 36377,
  "bourne</w>": 7422,
  "bout": 38528,
  "bout</w>": 10847,
  "bouti": 21359,
  "boutique</w>": 25103,
  "boutiques</w>": 40425,
  "bouts</w>": 11558,
  "bow": 7356,
  "bow</w>": 2877,
  "bowe</w>": 35081,
  "bowed</w>": 5113,
  "bowel</w>": 32830,
  "bowels</w>": 18857,
  "bowen</w>": 19894,
  "bower</w>": 35377,
  "bowie</w>": 33124,
  "bowing</w>": 12719,
  "bowl</w>": 5024,
  "bowled</w>": 35161,
  "bowler</w>": 38757,
  "bowling</w>": 16120,
  "bowls</w>": 13714,
  "bowman</w>": 31714,
  "bowmen</w>": 40265,
  "bows</w>": 5412,
  "box": 8144,
  "box</w>": 2394,
  "boxed</w>": 24930,
  "boxer</w>": 15256,
  "boxers</w>": 12016,
  "boxes</w>": 5674,
  "boxing</w>": 17716,
  "boxy</w>": 36815,
  "boy": 3643,
  "boy</w>": 1541,
  "boyd</w>": 25207,
  "boyfriend</w>": 4420,
  "boyfriends</w>": 17337,
  "boyhood</w>": 36542,
  "boyish</w>": 17855,
  "boyle</w>": 30335,
  "boys</w>": 2590,
  "boz": 35932,
  "br": 876,
  "br</w>": 4672,
  "bra": 1484,
  "bra</w>": 5092,
  "brac": 8211,
  "brace</w>": 13058,
  "braced</w>": 8167,
  "bracel": 9506,
  "bracelet</w>": 11290,
  "bracelets</w>": 20099,
  "braces</w>": 25085,
  "bracing</w>": 13688,
  "brack": 21323,
  "bracken</w>": 24095,
  "bracket</w>": 37380,
  "brad": 17122,
  "brad</w>": 6348,
  "braddle</w>": 35344,
  "braddock</w>": 38219,
  "braden</w>": 14602,
  "bradford</w>": 29833,
  "bradley</w>": 11993,
  "brador</w>": 36054,
  "brady</w>": 10102,
  "brae</w>": 34507,
  "brag</w>": 25675,
  "bragged</w>": 29632,
  "bragging</w>": 25347,
  "brah": 33549,
  "brahim</w>": 33232,
  "brai": 11787,
  "braid</w>": 13894,
  "braided</w>": 17788,
  "braids</w>": 20916,
  "brain": 19178,
  "brain</w>": 2887,
  "brained</w>": 31602,
  "brainless</w>": 38485,
  "brains</w>": 8826,
  "brainstor": 40311,
  "brainwashed</w>": 34326,
  "braith</w>": 14290,
  "brake</w>": 15714,
  "braked</w>": 30013,
  "brakes</w>": 12657,
  "bral</w>": 35033,
  "bram</w>": 12796,
  "brambles</w>": 33954,
  "bran": 3088,
  "bran</w>": 13790,
  "branch</w>": 6701,
  "branched</w>": 29128,
  "branches</w>": 5856,
  "branching</w>": 33695,
  "brand": 5493,
  "brand</w>": 6728,
  "branded</w>": 20354,
  "branden</w>": 34076,
  "brandi": 19281,
  "branding</w>": 28146,
  "brandished</w>": 30694,
  "brandishing</w>": 26665,
  "brandon</w>": 6724,
  "brands</w>": 26392,
  "brandt</w>": 15729,
  "brandy</w>": 11182,
  "brani": 30214,
  "branislava</w>": 30732,
  "branna</w>": 36315,
  "brannigan</w>": 39963,
  "brant</w>": 19452,
  "bras</w>": 25507,
  "brash</w>": 29419,
  "brask</w>": 32088,
  "brass</w>": 9802,
  "brat": 32699,
  "brat</w>": 15616,
  "brats</w>": 34042,
  "brau": 25372,
  "braulor</w>": 27549,
  "bravado</w>": 19585,
  "brave</w>": 6249,
  "braved</w>": 37486,
  "bravely</w>": 20327,
  "braver</w>": 28331,
  "bravery</w>": 18028,
  "braves</w>": 36577,
  "bravest</w>": 32698,
  "bravo</w>": 24899,
  "brawl</w>": 24039,
  "brawny</w>": 32267,
  "brax</w>": 23086,
  "bray": 23585,
  "bray</w>": 17501,
  "brayden</w>": 23897,
  "braydon</w>": 25890,
  "braz": 37261,
  "brazen</w>": 23095,
  "brazi": 28653,
  "brazier</w>": 39238,
  "brazil</w>": 22800,
  "brazilian</w>": 33100,
  "bre": 1142,
  "bre</w>": 23737,
  "brea": 1027,
  "breach</w>": 15155,
  "breached</w>": 22832,
  "bread": 31950,
  "bread</w>": 5339,
  "breadth</w>": 23155,
  "break": 3007,
  "break</w>": 2158,
  "breakable</w>": 21813,
  "breakdown</w>": 17219,
  "breaker</w>": 16743,
  "breakers</w>": 25674,
  "breakfa": 32619,
  "breakfast</w>": 3511,
  "breakfasts</w>": 38524,
  "breaking</w>": 3648,
  "breakneck</w>": 37485,
  "breaks</w>": 8035,
  "breakthrough</w>": 26184,
  "breakup</w>": 20425,
  "breast": 17454,
  "breast</w>": 5355,
  "breastbone</w>": 35230,
  "breasted</w>": 35343,
  "breastplate</w>": 26606,
  "breasts</w>": 6285,
  "breath": 8694,
  "breath</w>": 1379,
  "breathe</w>": 3601,
  "breathed</w>": 4071,
  "breather</w>": 28743,
  "breathes</w>": 15651,
  "breathing</w>": 2796,
  "breathless</w>": 8106,
  "breathlessly</w>": 13571,
  "breaths</w>": 6046,
  "breathtaking</w>": 15057,
  "breathy</w>": 19023,
  "brecken</w>": 27041,
  "brecker</w>": 38060,
  "bred</w>": 15209,
  "bree": 3759,
  "bree</w>": 12270,
  "breeches</w>": 16878,
  "breed": 23351,
  "breed</w>": 10699,
  "breeding</w>": 16515,
  "breedlove</w>": 37931,
  "breeds</w>": 27186,
  "breeze</w>": 4728,
  "breezed</w>": 29794,
  "breezes</w>": 28723,
  "breezy</w>": 30067,
  "breh</w>": 30598,
  "bren": 5746,
  "bren</w>": 37107,
  "brenda</w>": 12087,
  "brendan</w>": 18662,
  "brenna</w>": 15115,
  "brennan</w>": 12081,
  "brent</w>": 13470,
  "breslin</w>": 27848,
  "bret</w>": 19801,
  "brethren</w>": 16597,
  "brett</w>": 12575,
  "brevi": 34906,
  "brew": 31326,
  "brew</w>": 13529,
  "brewed</w>": 25617,
  "brewing</w>": 17083,
  "brews</w>": 40344,
  "brey</w>": 19834,
  "breyden</w>": 40217,
  "bri": 1161,
  "bri</w>": 20858,
  "bria</w>": 15428,
  "brian</w>": 5296,
  "brianna</w>": 11008,
  "brianne</w>": 32890,
  "briar</w>": 24643,
  "bribe</w>": 20827,
  "bribed</w>": 31443,
  "bribery</w>": 38869,
  "bribes</w>": 32454,
  "brice</w>": 23641,
  "brick": 31673,
  "brick</w>": 5483,
  "bricker</w>": 22034,
  "bricks</w>": 13029,
  "bridal</w>": 24359,
  "bride": 19980,
  "bride</w>": 6504,
  "brides</w>": 30504,
  "bridesma": 22349,
  "bridesmaid</w>": 29793,
  "bridesmaids</w>": 34075,
  "bridg": 26927,
  "bridge": 25185,
  "bridge</w>": 3762,
  "bridgemen</w>": 34428,
  "bridger</w>": 28636,
  "bridges</w>": 16309,
  "bridget</w>": 13964,
  "bridie</w>": 26483,
  "bridle</w>": 25907,
  "bridled</w>": 29226,
  "brie": 15599,
  "brie</w>": 31833,
  "briec</w>": 24177,
  "brief": 3443,
  "brief</w>": 4108,
  "briefcase</w>": 10202,
  "briefed</w>": 23109,
  "briefest</w>": 21340,
  "briefing</w>": 16669,
  "briefly</w>": 4462,
  "briefs</w>": 17207,
  "brielle</w>": 20176,
  "brien</w>": 33308,
  "brienne</w>": 30934,
  "brig": 25658,
  "brig</w>": 35687,
  "briga": 33822,
  "brigade</w>": 25626,
  "brigadier</w>": 39929,
  "briggs</w>": 17032,
  "bright": 27067,
  "bright</w>": 2512,
  "brighten</w>": 25301,
  "brightened</w>": 12043,
  "brightening</w>": 26456,
  "brightens</w>": 36541,
  "brighter</w>": 9841,
  "brightest</w>": 20640,
  "brightly</w>": 7549,
  "brightness</w>": 14280,
  "brighton</w>": 33307,
  "briksan</w>": 27394,
  "brilli": 4982,
  "brilliance</w>": 19110,
  "brilliant</w>": 5616,
  "brilliantly</w>": 20277,
  "brim": 20933,
  "brim</w>": 16705,
  "brimmed</w>": 23584,
  "brimming</w>": 20778,
  "brimstone</w>": 21509,
  "brin": 21540,
  "brin</w>": 40218,
  "brina</w>": 12737,
  "brine</w>": 27338,
  "bring</w>": 2030,
  "bringer</w>": 31376,
  "bringing</w>": 3836,
  "brings</w>": 6951,
  "brink</w>": 15445,
  "brinker</w>": 39237,
  "briony</w>": 25327,
  "bris</w>": 9382,
  "brisk": 12695,
  "brisk</w>": 14258,
  "briskly</w>": 13090,
  "bristle</w>": 33801,
  "bristled</w>": 17541,
  "bristles</w>": 34006,
  "bristling</w>": 23821,
  "bristly</w>": 39049,
  "bristol</w>": 31627,
  "brit": 7110,
  "brit</w>": 26185,
  "britain</w>": 19193,
  "briti": 7573,
  "british</w>": 7585,
  "britney</w>": 29958,
  "britt": 13493,
  "britt</w>": 40004,
  "brittany</w>": 13662,
  "brittle</w>": 16277,
  "brium</w>": 27315,
  "bro": 903,
  "bro</w>": 12451,
  "broa": 23423,
  "broach</w>": 29082,
  "broached</w>": 34871,
  "broad": 6572,
  "broad</w>": 5118,
  "broadcast</w>": 15414,
  "broadcasting</w>": 26813,
  "broadened</w>": 29154,
  "broader</w>": 25067,
  "broadly</w>": 15488,
  "broadsword</w>": 32889,
  "broadway</w>": 20697,
  "brocade</w>": 34602,
  "broccoli</w>": 32043,
  "broch</w>": 32545,
  "brochure</w>": 27254,
  "brochures</w>": 33039,
  "brock</w>": 11831,
  "broderick</w>": 37436,
  "brodie</w>": 21571,
  "brody</w>": 12901,
  "brogan</w>": 33181,
  "brok</w>": 37069,
  "broke</w>": 2441,
  "broken</w>": 2400,
  "brokenly</w>": 37484,
  "broker</w>": 23281,
  "bron": 6897,
  "bron</w>": 28206,
  "bronco</w>": 27575,
  "bronn</w>": 40387,
  "bronski</w>": 36247,
  "bronte</w>": 28473,
  "bronwyn</w>": 31421,
  "bronx</w>": 35741,
  "bronze</w>": 11514,
  "bronzed</w>": 28792,
  "broo": 4930,
  "brooch</w>": 29175,
  "brood</w>": 22983,
  "brooded</w>": 35582,
  "brooding</w>": 15567,
  "brook": 17278,
  "brook</w>": 12650,
  "brooke</w>": 9267,
  "brooklyn</w>": 20740,
  "brooks</w>": 11783,
  "broom": 30131,
  "broom</w>": 15732,
  "broomstick</w>": 33715,
  "broth</w>": 24176,
  "brothel</w>": 24550,
  "brother": 13456,
  "brother</w>": 1712,
  "brotherhood</w>": 15541,
  "brotherly</w>": 31734,
  "brothers</w>": 3633,
  "brou": 23096,
  "broudie</w>": 38377,
  "brought</w>": 1739,
  "broussard</w>": 31601,
  "brow": 7458,
  "brow</w>": 4076,
  "browley</w>": 38268,
  "brown": 20881,
  "brown</w>": 2507,
  "browncoat</w>": 40264,
  "brownie</w>": 24481,
  "brownies</w>": 25084,
  "browning</w>": 25949,
  "brownish</w>": 33334,
  "browns</w>": 24610,
  "brownstone</w>": 37106,
  "brows</w>": 5623,
  "browse</w>": 40089,
  "browser</w>": 36900,
  "browsing</w>": 32588,
  "bru": 1672,
  "bru</w>": 38413,
  "brubaker</w>": 30981,
  "bruce</w>": 9522,
  "bruise</w>": 11754,
  "bruised</w>": 9340,
  "bruiser</w>": 36995,
  "bruises</w>": 8994,
  "bruising</w>": 19094,
  "brun": 12378,
  "brunch</w>": 26265,
  "brunette</w>": 13222,
  "bruno</w>": 18430,
  "brunswick</w>": 39795,
  "brunt</w>": 23840,
  "brush</w>": 4233,
  "brushed</w>": 3736,
  "brushes</w>": 12630,
  "brushing</w>": 6263,
  "brusque</w>": 31557,
  "brusquely</w>": 27337,
  "brussels</w>": 37412,
  "brutal</w>": 9363,
  "brutality</w>": 23422,
  "brutally</w>": 18351,
  "brute</w>": 15806,
  "brutes</w>": 37147,
  "brutha</w>": 25415,
  "brutish</w>": 37981,
  "brutus</w>": 28088,
  "bry": 6403,
  "bry</w>": 28108,
  "bryan</w>": 12312,
  "bryant</w>": 22782,
  "bryce</w>": 13947,
  "bryn": 10456,
  "bryn</w>": 12798,
  "bryne</w>": 31932,
  "brynley</w>": 32104,
  "brynn</w>": 21906,
  "brynna</w>": 13922,
  "brynne</w>": 25050,
  "bryony</w>": 31325,
  "bryson</w>": 16067,
  "bs</w>": 2077,
  "bson</w>": 19466,
  "bu": 545,
  "bu</w>": 14318,
  "bub": 38298,
  "bub</w>": 22373,
  "bubb": 9688,
  "bubba</w>": 10939,
  "bubble</w>": 8963,
  "bubbled</w>": 15805,
  "bubbles</w>": 12258,
  "bubbling</w>": 13853,
  "bubbly</w>": 24564,
  "bublan": 39746,
  "bublanski</w>": 39747,
  "buchan": 28547,
  "buchanan</w>": 29584,
  "buck": 11544,
  "buck</w>": 8597,
  "bucked</w>": 16675,
  "bucket</w>": 8105,
  "buckets</w>": 18444,
  "bucking</w>": 23632,
  "buckingham</w>": 30048,
  "buckle</w>": 12112,
  "buckled</w>": 10522,
  "buckles</w>": 26548,
  "buckley</w>": 27789,
  "buckling</w>": 22522,
  "buckman</w>": 26109,
  "bucks</w>": 8683,
  "bucky</w>": 38297,
  "bud": 8153,
  "bud</w>": 10309,
  "buda": 39323,
  "budapest</w>": 39515,
  "budd": 13440,
  "budda</w>": 30624,
  "buddha</w>": 22415,
  "buddhi": 23904,
  "buddhist</w>": 32679,
  "buddies</w>": 12660,
  "budding</w>": 28145,
  "buddy</w>": 6299,
  "budge</w>": 12892,
  "budget</w>": 14121,
  "buds</w>": 15899,
  "budsby</w>": 33624,
  "buen": 38099,
  "buff": 10294,
  "buff</w>": 26748,
  "buffalo</w>": 17476,
  "buffe": 25906,
  "buffer</w>": 30576,
  "buffet</w>": 17189,
  "buffeted</w>": 34680,
  "buffo": 38946,
  "buffy</w>": 30399,
  "bug": 30089,
  "bug</w>": 8659,
  "bugged</w>": 20036,
  "bugger</w>": 19059,
  "buggers</w>": 34755,
  "bugging</w>": 23154,
  "buggy</w>": 22403,
  "bugs</w>": 10895,
  "bui": 4742,
  "buick</w>": 24726,
  "buil": 1556,
  "build</w>": 4749,
  "builder</w>": 25339,
  "builders</w>": 28415,
  "building</w>": 2040,
  "buildings</w>": 4680,
  "builds</w>": 25492,
  "buildup</w>": 38059,
  "built</w>": 3502,
  "bul": 2012,
  "bul</w>": 24866,
  "bulary</w>": 19782,
  "bulb": 27439,
  "bulb</w>": 13613,
  "bulbous</w>": 27634,
  "bulbs</w>": 18193,
  "bulge</w>": 15465,
  "bulged</w>": 16756,
  "bulger</w>": 22261,
  "bulging</w>": 12749,
  "bulk": 20940,
  "bulk</w>": 12095,
  "bulkhead</w>": 25590,
  "bulky</w>": 15383,
  "bull": 5671,
  "bull</w>": 7523,
  "bulldog</w>": 31517,
  "bulldozer</w>": 33649,
  "bulle": 25975,
  "bullet": 25959,
  "bullet</w>": 5397,
  "bulletin</w>": 27749,
  "bulletproof</w>": 28105,
  "bullets</w>": 7240,
  "bullied</w>": 26717,
  "bullies</w>": 24337,
  "bulls</w>": 24252,
  "bullshit</w>": 6940,
  "bully</w>": 15249,
  "bullying</w>": 25338,
  "bulous</w>": 11984,
  "bum</w>": 10186,
  "bumbling</w>": 37980,
  "bummed</w>": 36733,
  "bummer</w>": 32808,
  "bump</w>": 10137,
  "bumped</w>": 9429,
  "bumper</w>": 16164,
  "bumping</w>": 14268,
  "bumps</w>": 9797,
  "bumpy</w>": 25002,
  "bums</w>": 37717,
  "bun": 2706,
  "bun</w>": 12694,
  "bunch</w>": 4915,
  "bunched</w>": 16035,
  "bunches</w>": 35160,
  "bunching</w>": 32001,
  "bundle</w>": 10477,
  "bundled</w>": 18081,
  "bundles</w>": 24112,
  "bung": 20175,
  "bungalow</w>": 24490,
  "bunk": 30440,
  "bunk</w>": 12263,
  "bunker</w>": 15679,
  "bunkers</w>": 36576,
  "bunkhouse</w>": 35410,
  "bunks</w>": 31278,
  "bunnies</w>": 30834,
  "bunnu</w>": 27393,
  "bunny</w>": 16191,
  "buns</w>": 29042,
  "buo": 30259,
  "buoy": 31976,
  "buoy</w>": 38558,
  "buoyant</w>": 39546,
  "buoyed</w>": 37411,
  "bur": 1215,
  "bur</w>": 19198,
  "burden</w>": 8746,
  "burdened</w>": 23979,
  "burdens</w>": 27159,
  "burea": 10583,
  "bureau": 18708,
  "bureau</w>": 13734,
  "bureaucracy</w>": 33883,
  "bureaucratic</w>": 38098,
  "bureaucrats</w>": 39085,
  "burg</w>": 9902,
  "burge": 24541,
  "burgeoning</w>": 32697,
  "burger</w>": 11924,
  "burgers</w>": 18366,
  "burgess</w>": 38972,
  "burgh</w>": 16616,
  "burglar": 27099,
  "burglar</w>": 27997,
  "burglary</w>": 37105,
  "burgun": 18989,
  "burgundy</w>": 19185,
  "burial</w>": 16601,
  "buried</w>": 4051,
  "buries</w>": 28417,
  "burke</w>": 14817,
  "burlap</w>": 31397,
  "burly</w>": 16532,
  "burn": 25749,
  "burn</w>": 3667,
  "burned</w>": 3343,
  "burner</w>": 20431,
  "burners</w>": 39398,
  "burnett</w>": 14975,
  "burning</w>": 3307,
  "burnished</w>": 30647,
  "burns</w>": 8373,
  "burnt</w>": 9785,
  "burp</w>": 36025,
  "burped</w>": 40310,
  "burrito</w>": 39125,
  "burrow</w>": 26026,
  "burrowed</w>": 20949,
  "burrowing</w>": 28254,
  "burrows</w>": 33418,
  "bursar</w>": 35557,
  "burst</w>": 3159,
  "bursting</w>": 11020,
  "bursts</w>": 11470,
  "burt</w>": 32962,
  "burton</w>": 21918,
  "bury</w>": 7286,
  "burying</w>": 12499,
  "bus": 30875,
  "bus</w>": 3945,
  "buses</w>": 18917,
  "bush": 20372,
  "bush</w>": 7272,
  "bushes</w>": 7497,
  "bushka</w>": 30363,
  "bushy</w>": 18805,
  "busi": 28416,
  "busied</w>": 21893,
  "busier</w>": 32398,
  "busiest</w>": 36444,
  "busily</w>": 24027,
  "busin": 1921,
  "busines": 23250,
  "business": 12443,
  "business</w>": 2006,
  "businesses</w>": 14562,
  "businesslike</w>": 26222,
  "businessman</w>": 15891,
  "businessmen</w>": 24225,
  "bust</w>": 10753,
  "busted</w>": 11428,
  "buster</w>": 15632,
  "busting</w>": 23747,
  "bustle</w>": 21201,
  "bustled</w>": 22491,
  "bustling</w>": 16977,
  "busy": 39008,
  "busy</w>": 3004,
  "but": 5470,
  "but</w>": 568,
  "butch": 23020,
  "butch</w>": 12760,
  "butcher</w>": 15110,
  "butchered</w>": 30213,
  "butler</w>": 10259,
  "buts</w>": 32453,
  "butt": 2778,
  "butt</w>": 5530,
  "butte</w>": 36937,
  "butted</w>": 23555,
  "butter": 6796,
  "butter</w>": 8780,
  "buttercup</w>": 32021,
  "buttered</w>": 28742,
  "butterflies</w>": 11761,
  "butterfly</w>": 12145,
  "butters</w>": 30088,
  "buttery</w>": 33417,
  "butting</w>": 35197,
  "butto": 16704,
  "buttock</w>": 38868,
  "buttocks</w>": 18707,
  "button</w>": 3699,
  "buttoned</w>": 10961,
  "buttoning</w>": 19092,
  "buttons</w>": 7101,
  "butts</w>": 19437,
  "buy</w>": 3487,
  "buyer</w>": 22499,
  "buyers</w>": 28205,
  "buying</w>": 7660,
  "buys</w>": 24565,
  "buzz": 7534,
  "buzz</w>": 8717,
  "buzzard</w>": 36276,
  "buzzed</w>": 9853,
  "buzzer</w>": 21861,
  "buzzes</w>": 31104,
  "buzzing</w>": 9599,
  "by": 5329,
  "by</w>": 702,
  "bye</w>": 3877,
  "byes</w>": 14753,
  "byl</w>": 16397,
  "bypass</w>": 27098,
  "bypassed</w>": 29618,
  "bypassing</w>": 40263,
  "byr": 30398,
  "byron</w>": 12437,
  "bys</w>": 36698,
  "bystander</w>": 37661,
  "bystanders</w>": 32020,
  "c": 25,
  "c'": 10447,
  "c'mon</w>": 11638,
  "c.": 19546,
  "c.</w>": 8810,
  "c</w>": 263,
  "ca": 578,
  "ca</w>": 993,
  "cab": 2749,
  "cab</w>": 5919,
  "cabal</w>": 38179,
  "cabbage</w>": 25905,
  "cabbie</w>": 29766,
  "cabe": 39470,
  "cabin": 6305,
  "cabin</w>": 4269,
  "cabinet</w>": 7651,
  "cabinets</w>": 13359,
  "cabins</w>": 19879,
  "cable</w>": 9627,
  "cables</w>": 18856,
  "cably</w>": 15013,
  "cabs</w>": 33038,
  "cac": 12536,
  "cache</w>": 28886,
  "cack": 14200,
  "cackle</w>": 29302,
  "cackled</w>": 22402,
  "cackling</w>": 31577,
  "cacop": 21917,
  "cacophony</w>": 22953,
  "cactus</w>": 23233,
  "cad": 13001,
  "cad</w>": 36732,
  "cada": 26747,
  "cadaver</w>": 37818,
  "caddy</w>": 38141,
  "cade": 30472,
  "cade</w>": 7923,
  "caden</w>": 14136,
  "cadence</w>": 16083,
  "cadeon</w>": 24287,
  "cadet</w>": 35663,
  "cadets</w>": 33065,
  "cadil": 18293,
  "cadillac</w>": 19706,
  "cadmus</w>": 27822,
  "cado</w>": 25939,
  "cadogan</w>": 24778,
  "cadsu": 35711,
  "cadsuane</w>": 35740,
  "cadwala": 31491,
  "cadwaladr</w>": 33882,
  "cady</w>": 35125,
  "cae": 18384,
  "cael</w>": 23094,
  "caelen</w>": 24251,
  "caesar</w>": 18570,
  "caf": 11607,
  "cafe": 10335,
  "cafe</w>": 10717,
  "cafes</w>": 32856,
  "cafeteria</w>": 10629,
  "caffe": 17071,
  "caffeine</w>": 18120,
  "café</w>": 13550,
  "cage</w>": 5248,
  "caged</w>": 18054,
  "cages</w>": 17381,
  "caging</w>": 39370,
  "cahal</w>": 38375,
  "caia</w>": 14536,
  "cail": 21179,
  "caillen</w>": 24403,
  "cain</w>": 7938,
  "caine</w>": 11860,
  "cair": 20587,
  "caire</w>": 33495,
  "cairo</w>": 29190,
  "cait</w>": 39514,
  "caitlin</w>": 17812,
  "caitlyn</w>": 25958,
  "cajo": 24642,
  "cajoled</w>": 38140,
  "cajun</w>": 35662,
  "cake</w>": 5409,
  "caked</w>": 19545,
  "cakes</w>": 8787,
  "cal": 926,
  "cal</w>": 1780,
  "calamity</w>": 35436,
  "calcu": 10546,
  "calcul": 10135,
  "calculate</w>": 25844,
  "calculated</w>": 14505,
  "calculating</w>": 16028,
  "calculation</w>": 25616,
  "calculations</w>": 19989,
  "calculator</w>": 37692,
  "calculus</w>": 31068,
  "calder": 31949,
  "calder</w>": 20147,
  "caldwell</w>": 23499,
  "cale": 4981,
  "cale</w>": 11502,
  "calea</w>": 39007,
  "caleb</w>": 5164,
  "caleban</w>": 36731,
  "calen": 12857,
  "calendar</w>": 14020,
  "calf</w>": 13102,
  "calhoun</w>": 38903,
  "cali": 5139,
  "caliban</w>": 24300,
  "caliber</w>": 20112,
  "calibr": 34167,
  "calibur</w>": 37435,
  "calico</w>": 38058,
  "califor": 6870,
  "california</w>": 6983,
  "caligula</w>": 38679,
  "cality</w>": 30212,
  "call": 27158,
  "call</w>": 1370,
  "calla": 16625,
  "calla</w>": 23544,
  "callahan</w>": 19905,
  "called</w>": 1347,
  "caller</w>": 13985,
  "callers</w>": 40308,
  "calli": 12826,
  "callie</w>": 8538,
  "callin</w>": 35309,
  "calling</w>": 2954,
  "calliope</w>": 24803,
  "callista</w>": 29675,
  "callister</w>": 21381,
  "callous</w>": 23812,
  "calloused</w>": 27157,
  "calloway</w>": 36994,
  "calls</w>": 3872,
  "callu": 21437,
  "callum</w>": 9831,
  "callused</w>": 27300,
  "calluses</w>": 35494,
  "cally</w>": 2284,
  "calm</w>": 2681,
  "calmed</w>": 9706,
  "calmer</w>": 17612,
  "calming</w>": 11390,
  "calmly</w>": 5989,
  "calmness</w>": 23470,
  "calms</w>": 31974,
  "calories</w>": 27708,
  "cals</w>": 21824,
  "calves</w>": 16073,
  "calvin</w>": 10536,
  "calyp": 13698,
  "calypso</w>": 35783,
  "cam": 4667,
  "cam</w>": 8423,
  "camar": 17989,
  "camara": 27438,
  "camaraderie</w>": 27492,
  "camaro</w>": 25938,
  "camb": 20467,
  "cambridge</w>": 24381,
  "camden</w>": 17341,
  "came</w>": 939,
  "camel": 19141,
  "camel</w>": 20926,
  "camelot</w>": 40003,
  "camels</w>": 28402,
  "cameo</w>": 37900,
  "camer": 3019,
  "camera</w>": 4443,
  "cameraman</w>": 26899,
  "cameras</w>": 7521,
  "camerlegno</w>": 33267,
  "cameron</w>": 7738,
  "cami": 27420,
  "cami</w>": 20303,
  "camil": 11955,
  "camilla</w>": 23073,
  "camille</w>": 15608,
  "camisole</w>": 29765,
  "cammie</w>": 19581,
  "camo</w>": 29350,
  "camou": 14489,
  "camoufla": 14496,
  "camouflage</w>": 17811,
  "camouflaged</w>": 29060,
  "camp": 6339,
  "camp</w>": 4088,
  "campa": 9710,
  "campaig": 25708,
  "campaign</w>": 10792,
  "campaigns</w>": 34005,
  "campbell</w>": 15224,
  "camped</w>": 20098,
  "camper</w>": 25165,
  "campers</w>": 30105,
  "campfire</w>": 17711,
  "campfires</w>": 37228,
  "campground</w>": 29365,
  "camping</w>": 14722,
  "camps</w>": 16379,
  "campsite</w>": 19771,
  "campus</w>": 8030,
  "camryn</w>": 29792,
  "can": 2274,
  "can't</w>": 24836,
  "can</w>": 759,
  "cana": 15394,
  "canada</w>": 13864,
  "canadian</w>": 18280,
  "canal</w>": 14700,
  "canals</w>": 33929,
  "canary</w>": 28501,
  "canc": 6120,
  "cancel</w>": 15670,
  "canceled</w>": 21801,
  "canceling</w>": 39841,
  "cancelled</w>": 23978,
  "cancer</w>": 8940,
  "cand": 3688,
  "candace</w>": 11536,
  "candel": 33416,
  "candi": 10733,
  "candi</w>": 17146,
  "candice</w>": 23360,
  "candid</w>": 31749,
  "candidate</w>": 14916,
  "candidates</w>": 19715,
  "candl": 15143,
  "candle": 26379,
  "candle</w>": 7879,
  "candlelight</w>": 16552,
  "candles</w>": 7887,
  "candlestick</w>": 38452,
  "candor</w>": 30914,
  "candy</w>": 7023,
  "cane</w>": 7179,
  "canes</w>": 29437,
  "canfield</w>": 31832,
  "cani": 12912,
  "canic</w>": 23968,
  "canim</w>": 24717,
  "canine</w>": 22196,
  "canines</w>": 26926,
  "canio</w>": 35159,
  "canister</w>": 23583,
  "canisters</w>": 34140,
  "cann": 15215,
  "canna</w>": 25657,
  "canned</w>": 19781,
  "canni": 19848,
  "cannib": 26547,
  "cannibal</w>": 37775,
  "cannibals</w>": 38721,
  "cannon": 33306,
  "cannon</w>": 12114,
  "cannons</w>": 22742,
  "cano": 13640,
  "canoe</w>": 14548,
  "canoes</w>": 30980,
  "canon</w>": 35124,
  "canop": 36993,
  "canopy</w>": 12124,
  "cans</w>": 8870,
  "canted</w>": 35556,
  "canteen</w>": 18148,
  "canter</w>": 23725,
  "cants</w>": 35613,
  "canute</w>": 36275,
  "canv": 8849,
  "canvas</w>": 9466,
  "canvases</w>": 39840,
  "cany": 11667,
  "canyon</w>": 12490,
  "canyons</w>": 36053,
  "cap": 1564,
  "cap'n</w>": 23085,
  "cap</w>": 5622,
  "capabilities</w>": 21005,
  "capability</w>": 25615,
  "capable</w>": 4489,
  "capac": 20310,
  "capacity</w>": 11447,
  "cape</w>": 11554,
  "capella</w>": 36153,
  "capes</w>": 14019,
  "capit": 11361,
  "capital</w>": 9416,
  "capitali": 21317,
  "capitol</w>": 18732,
  "capp": 27511,
  "capped</w>": 19064,
  "cappuc": 34401,
  "cappuccino</w>": 37259,
  "capri": 34378,
  "caps</w>": 12998,
  "capsu": 21135,
  "capsule</w>": 25433,
  "captain</w>": 2636,
  "captains</w>": 18090,
  "capti": 12879,
  "caption</w>": 31540,
  "captivated</w>": 21722,
  "captivating</w>": 29617,
  "captive</w>": 11337,
  "captives</w>": 21057,
  "captivity</w>": 23350,
  "captor</w>": 20500,
  "captors</w>": 19665,
  "capture</w>": 8384,
  "captured</w>": 6597,
  "captures</w>": 39006,
  "capturing</w>": 18526,
  "car": 857,
  "car</w>": 1267,
  "cara": 10747,
  "cara</w>": 9355,
  "carafe</w>": 36814,
  "caramel</w>": 19411,
  "carat</w>": 40182,
  "caravan</w>": 15598,
  "caravans</w>": 34753,
  "carbon": 34249,
  "carbon</w>": 19885,
  "carca": 30597,
  "carcass</w>": 18589,
  "carcasses</w>": 32062,
  "card": 12327,
  "card</w>": 3708,
  "carda</w>": 24802,
  "cardboard</w>": 12743,
  "carder</w>": 34820,
  "cardi": 16830,
  "cardiac</w>": 35991,
  "cardigan</w>": 23967,
  "cardin": 15291,
  "cardinal</w>": 17893,
  "cardinals</w>": 35123,
  "cardo</w>": 24453,
  "cards</w>": 5555,
  "care": 1689,
  "care</w>": 1533,
  "cared</w>": 4457,
  "careened</w>": 29652,
  "careening</w>": 28458,
  "career</w>": 5784,
  "careers</w>": 22781,
  "caref": 16430,
  "carefree</w>": 16456,
  "careful</w>": 3140,
  "carefully</w>": 2685,
  "careless</w>": 13015,
  "carelessly</w>": 18499,
  "carelessness</w>": 36052,
  "cares</w>": 9105,
  "caress</w>": 9836,
  "caressed</w>": 9402,
  "caresses</w>": 20757,
  "caressing</w>": 10966,
  "caretaker</w>": 22652,
  "carey</w>": 25464,
  "cargo</w>": 8790,
  "cari": 16985,
  "caribbean</w>": 19328,
  "caric": 40386,
  "carina</w>": 24835,
  "caring</w>": 6908,
  "carl": 18214,
  "carl</w>": 8128,
  "carla</w>": 16837,
  "carley</w>": 34485,
  "carlisle</w>": 31127,
  "carlo</w>": 21560,
  "carlos</w>": 8321,
  "carlotta</w>": 23047,
  "carlson</w>": 28253,
  "carlton</w>": 26072,
  "carly</w>": 11177,
  "carmel": 38970,
  "carmel</w>": 34715,
  "carmela</w>": 40470,
  "carmen</w>": 13914,
  "carmichael</w>": 28053,
  "carmina</w>": 31779,
  "carmine</w>": 13929,
  "carn": 14961,
  "carnage</w>": 18240,
  "carnal</w>": 18576,
  "carni": 14124,
  "carnival</w>": 17087,
  "caro": 30520,
  "caro</w>": 33623,
  "carol": 4678,
  "carol</w>": 9001,
  "carole</w>": 32855,
  "carolina</w>": 11341,
  "caroline</w>": 7100,
  "carolyn</w>": 10354,
  "carou": 25937,
  "carousel</w>": 30575,
  "carpa": 26100,
  "carpath": 16141,
  "carpathian</w>": 16244,
  "carpathians</w>": 26523,
  "carpe": 15247,
  "carpen": 18634,
  "carpenter</w>": 22898,
  "carpet</w>": 6106,
  "carpeted</w>": 19233,
  "carpeting</w>": 26856,
  "carpets</w>": 24183,
  "carport</w>": 38756,
  "carr": 36614,
  "carri": 23271,
  "carriage</w>": 6599,
  "carriages</w>": 23219,
  "carrick</w>": 39322,
  "carrie</w>": 9450,
  "carried</w>": 2995,
  "carrier</w>": 15435,
  "carriers</w>": 29301,
  "carries</w>": 12790,
  "carrion</w>": 33785,
  "carrot</w>": 13179,
  "carrots</w>": 21570,
  "carrow</w>": 26509,
  "carry</w>": 3725,
  "carrying</w>": 3807,
  "cars</w>": 3977,
  "carson</w>": 9023,
  "cart": 29909,
  "cart</w>": 6559,
  "carted</w>": 29908,
  "cartel</w>": 27633,
  "carter</w>": 6948,
  "carth": 39369,
  "carthinal</w>": 27336,
  "carti": 38267,
  "cartilage</w>": 39236,
  "carto": 14476,
  "carton</w>": 18633,
  "cartons</w>": 29791,
  "cartoon</w>": 19673,
  "cartoons</w>": 29285,
  "cartri": 25066,
  "cartridge</w>": 33714,
  "cartridges</w>": 37258,
  "carts</w>": 17007,
  "cartw": 26010,
  "cartwright</w>": 26162,
  "carve</w>": 22714,
  "carved</w>": 6789,
  "carver</w>": 21297,
  "carving</w>": 17267,
  "carvings</w>": 24064,
  "cary</w>": 17428,
  "cas": 26889,
  "cas</w>": 22734,
  "casa</w>": 34224,
  "casan": 35635,
  "casca": 11076,
  "cascade</w>": 21322,
  "cascaded</w>": 21247,
  "cascading</w>": 20768,
  "case</w>": 1703,
  "cased</w>": 35286,
  "cases</w>": 5767,
  "casey</w>": 8795,
  "cash": 24462,
  "cash</w>": 4663,
  "cashier</w>": 20394,
  "cashmere</w>": 26467,
  "casi": 27378,
  "casimir</w>": 29387,
  "casin": 10736,
  "casing</w>": 22632,
  "casino</w>": 11821,
  "casinos</w>": 29364,
  "casket</w>": 17275,
  "casks</w>": 40216,
  "casno": 37979,
  "casp": 30012,
  "casper</w>": 20512,
  "caspian</w>": 35555,
  "cass": 7937,
  "cass</w>": 9397,
  "cassandra</w>": 8996,
  "casserole</w>": 26855,
  "cassette</w>": 34300,
  "cassi": 7588,
  "cassidy</w>": 9846,
  "cassie</w>": 4645,
  "cassiop": 21970,
  "cassiopeia</w>": 28573,
  "cassiopia</w>": 34655,
  "cassius</w>": 25514,
  "cast": 15835,
  "cast</w>": 3517,
  "caste</w>": 26082,
  "casted</w>": 38635,
  "caster</w>": 15841,
  "casters</w>": 32807,
  "casting</w>": 8295,
  "castle</w>": 4206,
  "castles</w>": 22852,
  "castor</w>": 24442,
  "casts</w>": 17214,
  "casu": 3848,
  "casual</w>": 6092,
  "casually</w>": 6361,
  "casualness</w>": 40181,
  "casualties</w>": 19636,
  "casualty</w>": 31067,
  "cat": 1660,
  "cat</w>": 3387,
  "cata": 12209,
  "catac": 19741,
  "catacly": 32129,
  "catacom": 25314,
  "catacombs</w>": 27040,
  "catali": 39367,
  "cataliades</w>": 39368,
  "catalina</w>": 20146,
  "catalo": 14626,
  "catalog</w>": 26925,
  "catalogue</w>": 32212,
  "cataly": 25206,
  "catalyst</w>": 27236,
  "catapul": 21314,
  "catapult</w>": 39366,
  "catapulted</w>": 36473,
  "catastro": 16416,
  "catastrophe</w>": 22926,
  "catastrophic</w>": 27721,
  "catatonic</w>": 36730,
  "catcalls</w>": 40343,
  "catch</w>": 2560,
  "catcher</w>": 14856,
  "catches</w>": 9749,
  "catching</w>": 5202,
  "cate": 22461,
  "cate</w>": 8754,
  "cated</w>": 13164,
  "categor": 22973,
  "categories</w>": 35409,
  "category</w>": 18697,
  "catelyn</w>": 24671,
  "cater": 19241,
  "cater</w>": 34622,
  "catered</w>": 30596,
  "catering</w>": 26071,
  "caterpillar</w>": 38592,
  "cates</w>": 23849,
  "catfish</w>": 29674,
  "cath": 11199,
  "cath</w>": 17115,
  "cathar": 39545,
  "cathe": 12715,
  "cathedral</w>": 13910,
  "catherine</w>": 7778,
  "catholi": 12537,
  "catholic</w>": 14044,
  "catholics</w>": 34930,
  "cathy</w>": 14116,
  "cating</w>": 13396,
  "cation</w>": 11071,
  "cations</w>": 39588,
  "cato</w>": 22934,
  "cator</w>": 30321,
  "cats</w>": 8407,
  "cattle</w>": 10786,
  "catty</w>": 39321,
  "catwalk</w>": 27808,
  "cau": 790,
  "cauca": 36340,
  "caucasian</w>": 37899,
  "caught</w>": 1684,
  "caul": 15069,
  "caulder</w>": 30646,
  "cauldron</w>": 21860,
  "cause": 30731,
  "cause</w>": 883,
  "caused</w>": 3761,
  "causes</w>": 11703,
  "causeway</w>": 34299,
  "causing</w>": 4849,
  "caust</w>": 37483,
  "caustic</w>": 36024,
  "cauti": 4988,
  "caution</w>": 9354,
  "cautioned</w>": 18790,
  "cautious</w>": 9611,
  "cautiously</w>": 7103,
  "cav": 15925,
  "cavali": 29249,
  "cavalier</w>": 33123,
  "cavalry</w>": 16465,
  "cavan": 36341,
  "cavanaugh</w>": 37586,
  "cave</w>": 4335,
  "caved</w>": 20476,
  "caveman</w>": 25337,
  "caven": 33527,
  "cavendish</w>": 36936,
  "caver": 14248,
  "cavern</w>": 9032,
  "cavernous</w>": 20042,
  "caverns</w>": 21767,
  "caves</w>": 11464,
  "cavi": 35196,
  "caviar</w>": 35408,
  "caving</w>": 34821,
  "cavity</w>": 23873,
  "cawley</w>": 38790,
  "cay": 25845,
  "cayden</w>": 40309,
  "cayman</w>": 34754,
  "cc": 23512,
  "cc</w>": 21750,
  "cca</w>": 5482,
  "cci</w>": 23613,
  "cco</w>": 18543,
  "ccoli</w>": 31975,
  "cctv</w>": 39005,
  "ccu": 27809,
  "ccupied</w>": 27935,
  "cd</w>": 14865,
  "cdc</w>": 32019,
  "cds</w>": 27143,
  "ce": 1345,
  "ce'": 16871,
  "ce'nedra</w>": 16960,
  "ce</w>": 608,
  "cea": 28849,
  "cease</w>": 14230,
  "ceased</w>": 9984,
  "ceaseless</w>": 39634,
  "ceases</w>": 37068,
  "cec": 12283,
  "cece</w>": 34275,
  "cecil</w>": 25779,
  "cecilia</w>": 22204,
  "cecily</w>": 24217,
  "ced": 6409,
  "ced</w>": 940,
  "cedar</w>": 16624,
  "cedes</w>": 11100,
  "cedric</w>": 33800,
  "cee": 4966,
  "cee</w>": 13426,
  "ceecee</w>": 35661,
  "ceeded</w>": 6342,
  "ceil": 16543,
  "ceiling</w>": 3540,
  "ceilinged</w>": 39197,
  "ceilings</w>": 18624,
  "cel": 2295,
  "cel</w>": 14221,
  "cela": 13577,
  "celaena</w>": 13656,
  "celak</w>": 31023,
  "cele": 4576,
  "celebr": 4647,
  "celebrate</w>": 9790,
  "celebrated</w>": 18255,
  "celebrating</w>": 15398,
  "celebration</w>": 11009,
  "celebrations</w>": 29225,
  "celebratory</w>": 33287,
  "celebrities</w>": 23848,
  "celebrity</w>": 15214,
  "celery</w>": 38139,
  "celess</w>": 15777,
  "celest": 8750,
  "celeste</w>": 12369,
  "celestial</w>": 22460,
  "celestino</w>": 31191,
  "celestra</w>": 32932,
  "celi": 25315,
  "celia</w>": 12129,
  "celibacy</w>": 37146,
  "celibate</w>": 37434,
  "celina</w>": 34621,
  "celine</w>": 22044,
  "cell": 20696,
  "cell</w>": 2776,
  "cellar</w>": 10240,
  "cellars</w>": 34166,
  "celle</w>": 40424,
  "celli</w>": 39004,
  "cello": 38338,
  "cello</w>": 29248,
  "cellophane</w>": 38634,
  "cellphone</w>": 26497,
  "cells</w>": 8449,
  "cellu": 23383,
  "cellular</w>": 26092,
  "cels</w>": 39084,
  "celtic</w>": 25985,
  "cely</w>": 6755,
  "celyn</w>": 15763,
  "cem": 5048,
  "ceme": 9293,
  "cement</w>": 5921,
  "cemented</w>": 32061,
  "cements</w>": 14997,
  "cemetery</w>": 9575,
  "cen": 1403,
  "cence</w>": 37260,
  "cency</w>": 19353,
  "ceness</w>": 30334,
  "censure</w>": 35080,
  "cent</w>": 2415,
  "centa": 29174,
  "centaur</w>": 30276,
  "centaurs</w>": 36119,
  "center": 24974,
  "center</w>": 2732,
  "centered</w>": 13499,
  "centerpiece</w>": 36443,
  "centers</w>": 21812,
  "centi": 17147,
  "centimeter</w>": 38591,
  "centimeters</w>": 30130,
  "centipe": 37324,
  "cently</w>": 12588,
  "centr": 3628,
  "central</w>": 6562,
  "centre</w>": 8077,
  "centri": 28673,
  "centric</w>": 18509,
  "cents</w>": 20262,
  "centu": 5419,
  "centur": 6248,
  "centuries</w>": 6067,
  "centurion</w>": 29418,
  "century</w>": 6283,
  "ceo</w>": 15728,
  "cep": 20364,
  "cepan</w>": 39587,
  "cept</w>": 36154,
  "cer": 1134,
  "cer</w>": 3812,
  "ceramic</w>": 19471,
  "cerber": 31216,
  "cerberus</w>": 31349,
  "cere": 25735,
  "cere</w>": 10606,
  "cereal</w>": 14436,
  "cerebral</w>": 35931,
  "cerem": 6063,
  "ceremon": 15669,
  "ceremonial</w>": 23218,
  "ceremonies</w>": 23679,
  "ceremoniously</w>": 22843,
  "ceremony</w>": 7489,
  "ceres</w>": 29363,
  "ceri</w>": 19337,
  "cerise</w>": 25957,
  "cers</w>": 11088,
  "cersei</w>": 23896,
  "certain": 2336,
  "certain</w>": 2227,
  "certainly</w>": 2577,
  "certainties</w>": 39235,
  "certainty</w>": 7252,
  "certi": 12275,
  "certific": 15967,
  "certificate</w>": 18399,
  "certificates</w>": 34165,
  "certified</w>": 30471,
  "ceru": 36697,
  "cerulean</w>": 37067,
  "ces": 27657,
  "ces</w>": 1778,
  "cesar</w>": 36575,
  "cesare</w>": 36407,
  "ceship</w>": 35580,
  "cess": 2344,
  "cess</w>": 2522,
  "cessna</w>": 32103,
  "cessor</w>": 24765,
  "cessors</w>": 32128,
  "cet</w>": 16290,
  "cetera</w>": 29518,
  "cett</w>": 28722,
  "cey</w>": 18461,
  "cezar</w>": 22948,
  "ch": 573,
  "ch</w>": 607,
  "cha": 879,
  "cha</w>": 9041,
  "chable</w>": 21727,
  "chace</w>": 16429,
  "chad": 38337,
  "chad</w>": 8021,
  "chaeli</w>": 28510,
  "chafed</w>": 35079,
  "chagrin</w>": 25956,
  "chagrined</w>": 36774,
  "chai</w>": 33694,
  "chaiko</w>": 13526,
  "chain": 21932,
  "chain</w>": 4824,
  "chained</w>": 13085,
  "chains</w>": 8037,
  "chainsaw</w>": 28472,
  "chair": 15824,
  "chair</w>": 1752,
  "chairman</w>": 17500,
  "chairs</w>": 4595,
  "chaise</w>": 22166,
  "chal": 3213,
  "chalice</w>": 25684,
  "chalk": 26149,
  "chalk</w>": 15493,
  "chalkboard</w>": 32508,
  "chalked</w>": 32544,
  "chalky</w>": 33439,
  "challen": 4389,
  "challeng": 9431,
  "challenge</w>": 5251,
  "challenged</w>": 10293,
  "challenger</w>": 35493,
  "challenges</w>": 16897,
  "challenging</w>": 12565,
  "chalmers</w>": 39544,
  "cham": 39928,
  "chamb": 8707,
  "chamber": 22807,
  "chamber</w>": 4801,
  "chamberlain</w>": 27314,
  "chambers</w>": 10690,
  "chamel": 24026,
  "chameleon</w>": 25872,
  "champ": 5875,
  "champ</w>": 25641,
  "champagne</w>": 8161,
  "champi": 20005,
  "champion</w>": 13382,
  "champions</w>": 29517,
  "championship</w>": 24224,
  "chan": 3152,
  "chan</w>": 14392,
  "chanc": 14656,
  "chance</w>": 1889,
  "chanced</w>": 26402,
  "chancel": 16105,
  "chancellor</w>": 16295,
  "chances</w>": 6531,
  "chancho</w>": 31651,
  "chand": 11171,
  "chandar</w>": 33881,
  "chandeli": 14708,
  "chandelier</w>": 18843,
  "chandeliers</w>": 25258,
  "chandler</w>": 20507,
  "chanel</w>": 35814,
  "chang": 1701,
  "chang</w>": 33526,
  "change</w>": 1796,
  "changeable</w>": 34452,
  "changed</w>": 2097,
  "changeling</w>": 36875,
  "changes</w>": 5759,
  "changing</w>": 4685,
  "chann": 10045,
  "channel</w>": 8047,
  "channeled</w>": 30933,
  "channeling</w>": 26999,
  "channels</w>": 14314,
  "channie</w>": 19652,
  "channing</w>": 20897,
  "chant</w>": 8631,
  "chanted</w>": 18534,
  "chanting</w>": 14592,
  "chants</w>": 31733,
  "chao</w>": 39839,
  "chaol</w>": 21749,
  "chaos</w>": 6509,
  "chaotic</w>": 16674,
  "chap": 1610,
  "chap</w>": 17905,
  "chapel</w>": 11367,
  "chaper": 22552,
  "chaperone</w>": 30854,
  "chaplain</w>": 32235,
  "chapman</w>": 30932,
  "chapped</w>": 34819,
  "chaps</w>": 28830,
  "chapter</w>": 1664,
  "chapters</w>": 25579,
  "char": 1336,
  "char</w>": 21780,
  "charac": 4323,
  "character": 10474,
  "character</w>": 6371,
  "characteri": 13159,
  "characteristic</w>": 17528,
  "characteristically</w>": 23430,
  "characteristics</w>": 22972,
  "characters</w>": 9668,
  "charade</w>": 20800,
  "charcoal</w>": 15521,
  "chard</w>": 14775,
  "chardonnay</w>": 39003,
  "chards</w>": 33899,
  "charge</w>": 3823,
  "charged</w>": 5700,
  "charger</w>": 22831,
  "charges</w>": 8561,
  "charging</w>": 11002,
  "chari": 12675,
  "chariah</w>": 31689,
  "chariot</w>": 24846,
  "charisma</w>": 28780,
  "charismatic</w>": 30754,
  "charitable</w>": 25205,
  "charities</w>": 33764,
  "charity</w>": 9338,
  "charka</w>": 39234,
  "charle": 15199,
  "charlene</w>": 30755,
  "charles</w>": 4870,
  "charleston</w>": 16564,
  "charley</w>": 16022,
  "charlie</w>": 3831,
  "charlotte</w>": 5626,
  "charm</w>": 7237,
  "charmed</w>": 19217,
  "charmer</w>": 28848,
  "charming</w>": 7403,
  "charmingly</w>": 39962,
  "charms</w>": 15195,
  "charon</w>": 36213,
  "charred</w>": 14483,
  "chart</w>": 14326,
  "charted</w>": 31304,
  "charter</w>": 25336,
  "chartered</w>": 39048,
  "charts</w>": 18815,
  "chas</w>": 26537,
  "chase</w>": 3190,
  "chased</w>": 6108,
  "chaser</w>": 36729,
  "chases</w>": 19078,
  "chasing</w>": 7150,
  "chasm</w>": 17224,
  "chassie</w>": 25313,
  "chast": 22338,
  "chaste</w>": 23668,
  "chasti": 15906,
  "chastise</w>": 35957,
  "chastised</w>": 22960,
  "chastising</w>": 38138,
  "chastity</w>": 28721,
  "chat</w>": 7832,
  "chateau</w>": 24875,
  "chats</w>": 35612,
  "chatted</w>": 13531,
  "chatter</w>": 11557,
  "chattered</w>": 22182,
  "chattering</w>": 14210,
  "chatting</w>": 10405,
  "chatty</w>": 29205,
  "chau": 14451,
  "chaucer</w>": 37145,
  "chauffe": 19878,
  "chauffeur</w>": 21913,
  "chauvin": 38755,
  "chavez</w>": 38824,
  "chay": 35894,
  "chaytan</w>": 37859,
  "chaz</w>": 25571,
  "che": 1755,
  "che</w>": 8841,
  "chea": 6288,
  "cheap</w>": 7152,
  "cheaper</w>": 24111,
  "cheapest</w>": 40180,
  "cheat</w>": 14420,
  "cheated</w>": 13082,
  "cheater</w>": 35195,
  "cheating</w>": 11581,
  "chec": 1673,
  "check": 11485,
  "check</w>": 2457,
  "checkbook</w>": 36773,
  "checked</w>": 3365,
  "checkered</w>": 29847,
  "checking</w>": 4980,
  "checklist</w>": 36376,
  "checkout</w>": 26209,
  "checkpoint</w>": 29112,
  "checks</w>": 11405,
  "ched": 30645,
  "ched</w>": 891,
  "chee": 1626,
  "chee</w>": 19695,
  "cheek": 9751,
  "cheek</w>": 2451,
  "cheekbone</w>": 18531,
  "cheekbones</w>": 12184,
  "cheeked</w>": 37030,
  "cheeks</w>": 2835,
  "cheeky</w>": 23293,
  "cheer": 8042,
  "cheer</w>": 9438,
  "cheered</w>": 12011,
  "cheerful</w>": 10276,
  "cheerfully</w>": 12051,
  "cheerfulness</w>": 38523,
  "cheeri": 38720,
  "cheerily</w>": 33415,
  "cheering</w>": 13524,
  "cheerleader</w>": 21233,
  "cheerleaders</w>": 24764,
  "cheerleading</w>": 27777,
  "cheers</w>": 12517,
  "cheery</w>": 18191,
  "cheese": 18359,
  "cheese</w>": 6821,
  "cheeseburger</w>": 29547,
  "cheesecake</w>": 32127,
  "cheeses</w>": 36654,
  "cheesy</w>": 21044,
  "chef</w>": 12751,
  "chefs</w>": 36935,
  "chel": 9571,
  "chel</w>": 15607,
  "chello</w>": 29870,
  "chelsea</w>": 13271,
  "chelsie</w>": 32888,
  "chem": 9069,
  "chem</w>": 29714,
  "chemi": 9952,
  "chemical</w>": 12620,
  "chemicals</w>": 17655,
  "chemise</w>": 30155,
  "chemist</w>": 34484,
  "chemistry</w>": 12652,
  "chemists</w>": 23377,
  "chemo</w>": 35342,
  "chen": 20663,
  "chen</w>": 1870,
  "cheon</w>": 23498,
  "cheque</w>": 38969,
  "cher": 4953,
  "cher</w>": 3837,
  "cherd</w>": 20347,
  "cherek</w>": 34506,
  "cheres</w>": 19470,
  "cheri": 11484,
  "cheri</w>": 40342,
  "cherie</w>": 26888,
  "cherise</w>": 29247,
  "cherish</w>": 22061,
  "cherished</w>": 17389,
  "chero": 24670,
  "cherokee</w>": 27532,
  "cherries</w>": 31066,
  "cherry</w>": 8765,
  "chers</w>": 12007,
  "cheru": 25257,
  "chery</w>": 33037,
  "cheryl</w>": 17303,
  "ches</w>": 1601,
  "cheshire</w>": 33928,
  "chess": 37350,
  "chess</w>": 9225,
  "chessboard</w>": 40423,
  "chest": 10083,
  "chest</w>": 1453,
  "chested</w>": 25001,
  "chester</w>": 10580,
  "chestnut</w>": 18383,
  "chests</w>": 15719,
  "chet</w>": 12470,
  "cheted</w>": 20174,
  "cheting</w>": 29386,
  "chette</w>": 36934,
  "chev": 14561,
  "chevro": 39927,
  "chevy</w>": 21263,
  "chew": 38178,
  "chew</w>": 13247,
  "chewed</w>": 8505,
  "chewing</w>": 9515,
  "chews</w>": 30502,
  "chewy</w>": 25102,
  "chey": 14515,
  "cheyenne</w>": 14948,
  "chez</w>": 17001,
  "cheza</w>": 33494,
  "chi": 955,
  "chi</w>": 14903,
  "chic</w>": 24380,
  "chica": 7445,
  "chica</w>": 36696,
  "chicago</w>": 7490,
  "chick": 12772,
  "chick</w>": 10380,
  "chicken</w>": 5867,
  "chickens</w>": 16428,
  "chicks</w>": 17862,
  "chicky</w>": 40262,
  "chided</w>": 17638,
  "chiding</w>": 36728,
  "chie</w>": 11190,
  "chief": 14710,
  "chief</w>": 4185,
  "chiefs</w>": 22752,
  "chieftain</w>": 26782,
  "chiff": 32087,
  "chiffon</w>": 37522,
  "chihu": 39047,
  "chihuahu": 39469,
  "chik</w>": 24938,
  "chil": 1749,
  "child": 6013,
  "child</w>": 2021,
  "childbirth</w>": 28706,
  "childhood</w>": 6780,
  "childish</w>": 13261,
  "childlike</w>": 25422,
  "children</w>": 2080,
  "chili</w>": 22942,
  "chill</w>": 5463,
  "chille</w>": 34818,
  "chilled</w>": 11998,
  "chilling</w>": 15009,
  "chillings</w>": 39586,
  "chills</w>": 14974,
  "chilly</w>": 11871,
  "chim": 14855,
  "chimaera</w>": 39124,
  "chime</w>": 21496,
  "chimed</w>": 11864,
  "chimes</w>": 21050,
  "chiming</w>": 33333,
  "chimney</w>": 17504,
  "chimneys</w>": 31516,
  "chimp": 39233,
  "chimpan": 39745,
  "chin": 14809,
  "chin</w>": 2701,
  "china</w>": 8898,
  "chinese</w>": 8304,
  "ching</w>": 1116,
  "chingly</w>": 31465,
  "chings</w>": 40307,
  "chink</w>": 36406,
  "chins</w>": 28304,
  "chinson</w>": 30998,
  "chio</w>": 34654,
  "chip": 40002,
  "chip</w>": 8649,
  "chipped</w>": 18126,
  "chipper</w>": 27156,
  "chipping</w>": 37410,
  "chips</w>": 9079,
  "chir": 11548,
  "chirp</w>": 33150,
  "chirped</w>": 20063,
  "chirping</w>": 23649,
  "chirps</w>": 37521,
  "chisel": 15920,
  "chisel</w>": 36212,
  "chiseled</w>": 16886,
  "chit": 31490,
  "chit</w>": 26766,
  "chitchat</w>": 33898,
  "chival": 34349,
  "chivalrous</w>": 36509,
  "chivalry</w>": 33018,
  "chlight</w>": 23188,
  "chloe</w>": 5398,
  "chlor": 18717,
  "chlorien</w>": 28035,
  "chman</w>": 16792,
  "chmen</w>": 24735,
  "cho": 1277,
  "cho</w>": 5031,
  "chocol": 5020,
  "chocolate</w>": 5317,
  "chocolates</w>": 23421,
  "choice</w>": 2650,
  "choices</w>": 7875,
  "choir</w>": 19006,
  "choke</w>": 10382,
  "choked</w>": 5963,
  "choker</w>": 37066,
  "chokes</w>": 30439,
  "choking</w>": 9166,
  "chomping</w>": 35194,
  "chon</w>": 32961,
  "choo": 8150,
  "choo</w>": 31238,
  "choose</w>": 4484,
  "chooses</w>": 19860,
  "choosing</w>": 9772,
  "chop": 29564,
  "chop</w>": 16172,
  "chopped</w>": 17163,
  "chopper</w>": 15581,
  "choppers</w>": 38266,
  "chopping</w>": 18508,
  "choppy</w>": 27877,
  "chops</w>": 25808,
  "chopsticks</w>": 33180,
  "chor": 8008,
  "chord</w>": 21163,
  "chords</w>": 22240,
  "chore": 26122,
  "chore</w>": 21097,
  "choreogra": 26508,
  "chores</w>": 14344,
  "chort": 24988,
  "chortled</w>": 30711,
  "chorus</w>": 11935,
  "chose</w>": 4760,
  "chosen</w>": 4841,
  "chow": 38265,
  "chow</w>": 28104,
  "chri": 1764,
  "chris</w>": 4255,
  "chrissie</w>": 25170,
  "chrissy</w>": 15097,
  "christ": 3055,
  "christ</w>": 5242,
  "christa</w>": 30623,
  "christen": 40001,
  "christi": 10885,
  "christian": 27059,
  "christian</w>": 4765,
  "christiana</w>": 22069,
  "christianity</w>": 28034,
  "christians</w>": 21691,
  "christie</w>": 23153,
  "christina</w>": 17060,
  "christine</w>": 12958,
  "christma": 37144,
  "christmas</w>": 4075,
  "christop": 8739,
  "christophe</w>": 27219,
  "christopher</w>": 9488,
  "christy</w>": 18611,
  "chro": 24641,
  "chrome</w>": 18782,
  "chromo": 35407,
  "chron": 11876,
  "chroni": 25538,
  "chronic</w>": 35158,
  "chronicle</w>": 32646,
  "chronicles</w>": 32543,
  "chry": 20184,
  "chrysalis</w>": 32789,
  "chs</w>": 24588,
  "cht</w>": 38945,
  "chu": 2250,
  "chu</w>": 21683,
  "chubby</w>": 18467,
  "chuch</w>": 37585,
  "chuck": 2755,
  "chuck</w>": 7961,
  "chucked</w>": 25529,
  "chuckle</w>": 6907,
  "chuckled</w>": 3830,
  "chuckles</w>": 10014,
  "chuckling</w>": 11958,
  "chucks</w>": 39543,
  "chug</w>": 28509,
  "chugged</w>": 28303,
  "chugging</w>": 32170,
  "chum</w>": 29764,
  "chunk</w>": 11420,
  "chunks</w>": 13436,
  "chunky</w>": 27919,
  "chup</w>": 19833,
  "chur": 2884,
  "church": 33305,
  "church</w>": 3430,
  "churches</w>": 20453,
  "chure</w>": 27142,
  "chures</w>": 33036,
  "churn</w>": 24777,
  "churned</w>": 14552,
  "churning</w>": 12530,
  "chus</w>": 38902,
  "chute</w>": 23349,
  "chy": 30344,
  "chy</w>": 5837,
  "chyna</w>": 26009,
  "ci": 814,
  "ci</w>": 10641,
  "cia</w>": 6182,
  "cian</w>": 8648,
  "cians</w>": 13574,
  "cic": 28204,
  "cide</w>": 20970,
  "cider</w>": 24329,
  "cidra</w>": 23530,
  "cie</w>": 14146,
  "cies</w>": 9356,
  "cigar": 4343,
  "cigar</w>": 12028,
  "cigarette</w>": 5268,
  "cigarettes</w>": 10379,
  "cigars</w>": 24599,
  "cil</w>": 3816,
  "cile</w>": 22525,
  "cillian</w>": 28756,
  "cimil</w>": 26070,
  "cin": 3439,
  "cinched</w>": 30236,
  "cincin": 26455,
  "cincinnati</w>": 26678,
  "cinct</w>": 22296,
  "cinder": 23144,
  "cinder</w>": 18154,
  "cinderella</w>": 27632,
  "cinders</w>": 30033,
  "cindy</w>": 11586,
  "cinema</w>": 26765,
  "cing</w>": 1893,
  "cingly</w>": 22576,
  "cings</w>": 27185,
  "cinna": 15277,
  "cinnamon</w>": 15341,
  "cino</w>": 31732,
  "cinta</w>": 31239,
  "cio</w>": 20959,
  "cion</w>": 37257,
  "cious</w>": 22683,
  "cip": 3345,
  "cipher</w>": 33604,
  "cir": 1852,
  "circ": 3523,
  "circe</w>": 34348,
  "circle</w>": 3468,
  "circled</w>": 6489,
  "circles</w>": 6127,
  "circling</w>": 8482,
  "circu": 3595,
  "circuit</w>": 14313,
  "circuits</w>": 27601,
  "circul": 18057,
  "circular</w>": 10073,
  "circulate</w>": 40422,
  "circulated</w>": 30668,
  "circulating</w>": 29583,
  "circulation</w>": 22910,
  "circum": 4810,
  "circumference</w>": 34929,
  "circumstan": 36339,
  "circumstance</w>": 18297,
  "circumstances</w>": 5577,
  "circumstantial</w>": 37433,
  "circus</w>": 14833,
  "cis</w>": 30503,
  "cisco</w>": 33438,
  "cism</w>": 15776,
  "cist</w>": 18412,
  "cists</w>": 33464,
  "cit": 10692,
  "citadel</w>": 17287,
  "cited</w>": 40471,
  "citi": 6402,
  "cities</w>": 7876,
  "citing</w>": 38376,
  "citizen": 27174,
  "citizen</w>": 12527,
  "citizens</w>": 8611,
  "citizenship</w>": 34752,
  "citrus</w>": 32887,
  "city": 40140,
  "city</w>": 1807,
  "cive</w>": 37323,
  "civi": 4808,
  "civic</w>": 25734,
  "civil": 28052,
  "civil</w>": 10139,
  "civili": 7234,
  "civilian</w>": 14082,
  "civilians</w>": 17142,
  "civility</w>": 32678,
  "civilization</w>": 12702,
  "civilizations</w>": 34601,
  "civilized</w>": 15402,
  "ck": 882,
  "ck</w>": 740,
  "ckage</w>": 14820,
  "cked</w>": 1104,
  "cken</w>": 4889,
  "cker</w>": 2980,
  "ckers</w>": 16236,
  "cket</w>": 2114,
  "ckets</w>": 3894,
  "ckey</w>": 13416,
  "ckin</w>": 22401,
  "cking</w>": 1651,
  "ckland</w>": 36653,
  "ckle": 36508,
  "ckle</w>": 5459,
  "ckled</w>": 5141,
  "ckles</w>": 4979,
  "ckling</w>": 8001,
  "ckly</w>": 19580,
  "cko</w>": 30595,
  "cks</w>": 1711,
  "cky</w>": 2220,
  "cl": 1327,
  "cl</w>": 13377,
  "cla": 1087,
  "cla</w>": 37745,
  "clack</w>": 27671,
  "clacked</w>": 36874,
  "clacking</w>": 30753,
  "clad</w>": 9316,
  "clai": 9044,
  "claim</w>": 4978,
  "claimed</w>": 3405,
  "claiming</w>": 9582,
  "claims</w>": 9252,
  "clair": 30979,
  "clair</w>": 11377,
  "claire</w>": 3328,
  "clairvoy": 36727,
  "clam": 31103,
  "clam</w>": 30032,
  "clamation</w>": 18632,
  "clamations</w>": 36933,
  "clamber</w>": 37409,
  "clambered</w>": 17875,
  "clambering</w>": 34928,
  "clammy</w>": 18460,
  "clamor</w>": 27689,
  "clamoring</w>": 31931,
  "clamp</w>": 21126,
  "clamped</w>": 8910,
  "clamping</w>": 24336,
  "clamps</w>": 25766,
  "clan": 7315,
  "clan</w>": 5159,
  "clancy</w>": 23895,
  "clandest": 23966,
  "clandestine</w>": 24960,
  "clang</w>": 19361,
  "clanged</w>": 24549,
  "clanging</w>": 23989,
  "clank</w>": 28126,
  "clanked</w>": 32370,
  "clanking</w>": 27235,
  "clans</w>": 19602,
  "clanton</w>": 36023,
  "clap</w>": 14547,
  "clapped</w>": 8305,
  "clapping</w>": 13177,
  "claps</w>": 21944,
  "clar": 2637,
  "clara</w>": 12205,
  "clare</w>": 12780,
  "clarence</w>": 16066,
  "clari": 8032,
  "clarice</w>": 18751,
  "clarification</w>": 30519,
  "clarified</w>": 17056,
  "clarify</w>": 21871,
  "clarissa</w>": 13439,
  "clarisse</w>": 38590,
  "clarity</w>": 10271,
  "clark</w>": 11713,
  "clarke</w>": 29464,
  "clarkson</w>": 32788,
  "clary</w>": 8959,
  "clash</w>": 21682,
  "clashed</w>": 24395,
  "clashing</w>": 30258,
  "clasp</w>": 13773,
  "clasped</w>": 7460,
  "clasping</w>": 16993,
  "clasps</w>": 27788,
  "class": 9343,
  "class</w>": 2879,
  "classes</w>": 6654,
  "classi": 7092,
  "classic</w>": 11612,
  "classical</w>": 19549,
  "classics</w>": 33713,
  "classified</w>": 17564,
  "classm": 14009,
  "classmate</w>": 35193,
  "classmates</w>": 16110,
  "classroom</w>": 10252,
  "classrooms</w>": 29153,
  "classy</w>": 21331,
  "clat": 39670,
  "clatter</w>": 15782,
  "clattered</w>": 15984,
  "clattering</w>": 20910,
  "clau": 5661,
  "claude</w>": 9825,
  "claudette</w>": 38867,
  "claudia</w>": 12508,
  "claudine</w>": 36051,
  "claudio</w>": 29616,
  "claus</w>": 22857,
  "clause</w>": 27982,
  "claustro": 19197,
  "claustropho": 19222,
  "claustrophobia</w>": 36274,
  "claustrophobic</w>": 23064,
  "clave</w>": 16239,
  "claw": 39926,
  "claw</w>": 9142,
  "clawed</w>": 11026,
  "clawing</w>": 13842,
  "claws</w>": 6050,
  "clay": 27066,
  "clay</w>": 5538,
  "claymore</w>": 37029,
  "clayton</w>": 12233,
  "cle": 4315,
  "cle</w>": 1758,
  "clea": 1524,
  "clean": 7265,
  "clean</w>": 2698,
  "cleaned</w>": 6659,
  "cleaner</w>": 15125,
  "cleaners</w>": 27275,
  "cleaning</w>": 6302,
  "cleanliness</w>": 35956,
  "cleanly</w>": 24609,
  "cleans</w>": 35686,
  "cleanse</w>": 28414,
  "cleansed</w>": 31800,
  "cleansing</w>": 21766,
  "cleanup</w>": 25537,
  "clear": 1775,
  "clear</w>": 1949,
  "clearance</w>": 20371,
  "cleared</w>": 3507,
  "clearer</w>": 13652,
  "clearing</w>": 5249,
  "clearly</w>": 2638,
  "clears</w>": 15618,
  "cleavage</w>": 24223,
  "cleaved</w>": 40088,
  "cleaver</w>": 26053,
  "cled</w>": 25846,
  "cleft</w>": 21707,
  "clem</w>": 23762,
  "clemen": 15589,
  "clement</w>": 35341,
  "clementine</w>": 18284,
  "clen": 3193,
  "clen</w>": 31600,
  "clench</w>": 12050,
  "clenched</w>": 3989,
  "clenches</w>": 23093,
  "clenching</w>": 10527,
  "clendon</w>": 23977,
  "cleo</w>": 21004,
  "cleon</w>": 32829,
  "cleop": 24812,
  "cleopatra</w>": 30693,
  "cler": 7274,
  "clerk</w>": 8798,
  "clerks</w>": 26221,
  "cles</w>": 4854,
  "cleveland</w>": 29081,
  "clever": 20811,
  "clever</w>": 7472,
  "cleverly</w>": 29463,
  "cleverness</w>": 37584,
  "cli": 1445,
  "cli</w>": 22181,
  "clich": 26579,
  "cliche</w>": 27419,
  "cliché</w>": 32452,
  "click</w>": 6923,
  "clicked</w>": 6381,
  "clicking</w>": 11697,
  "clicks</w>": 16490,
  "clien": 26310,
  "client</w>": 6875,
  "clientele</w>": 26344,
  "clients</w>": 8272,
  "cliff</w>": 5768,
  "cliffe</w>": 23168,
  "clifford</w>": 35611,
  "cliffs</w>": 13703,
  "clim": 39715,
  "clima": 30362,
  "climate</w>": 17599,
  "climax</w>": 14043,
  "climaxed</w>": 36442,
  "climb": 2726,
  "climb</w>": 4873,
  "climbed</w>": 3422,
  "climber</w>": 36375,
  "climbers</w>": 40043,
  "climbing</w>": 6134,
  "climbs</w>": 17544,
  "clin": 6546,
  "clinched</w>": 39744,
  "cling</w>": 12168,
  "clinging</w>": 8749,
  "clings</w>": 33149,
  "clingy</w>": 30047,
  "clinic</w>": 10370,
  "clinical</w>": 22721,
  "clink</w>": 22347,
  "clinked</w>": 23700,
  "clinking</w>": 24898,
  "clint</w>": 12426,
  "clinton</w>": 27474,
  "clip</w>": 11306,
  "clipboard</w>": 15781,
  "clipped</w>": 9830,
  "clipping</w>": 26959,
  "clippings</w>": 31215,
  "clips</w>": 19849,
  "clit": 24443,
  "clit</w>": 8540,
  "clitoris</w>": 25124,
  "clive</w>": 19327,
  "clo": 796,
  "cloa": 16511,
  "cloak</w>": 6360,
  "cloaked</w>": 16252,
  "cloaking</w>": 34298,
  "cloaks</w>": 19389,
  "clock": 16183,
  "clock</w>": 3275,
  "clocked</w>": 33741,
  "clocks</w>": 24776,
  "clockwise</w>": 29869,
  "clockwork</w>": 24370,
  "clogged</w>": 20889,
  "clogging</w>": 33603,
  "clone</w>": 15798,
  "cloned</w>": 40139,
  "clones</w>": 23858,
  "cloning</w>": 37551,
  "close": 5891,
  "close</w>": 1343,
  "closed</w>": 1562,
  "closely</w>": 5277,
  "closeness</w>": 17049,
  "closer</w>": 1869,
  "closes</w>": 9849,
  "closest</w>": 6347,
  "closet</w>": 4782,
  "closets</w>": 25272,
  "closing</w>": 3958,
  "closure</w>": 13859,
  "clot</w>": 37774,
  "cloth</w>": 4850,
  "clothe": 32677,
  "clothed</w>": 13938,
  "clothes": 39196,
  "clothes</w>": 2149,
  "clothing</w>": 4695,
  "cloths</w>": 20445,
  "clotted</w>": 35610,
  "clou": 3730,
  "cloud": 33548,
  "cloud</w>": 4635,
  "clouded</w>": 13187,
  "clouding</w>": 26108,
  "cloudless</w>": 24587,
  "clouds</w>": 4596,
  "cloudy</w>": 16243,
  "clout</w>": 32992,
  "clover</w>": 26401,
  "clovis</w>": 35840,
  "clown</w>": 16027,
  "clowns</w>": 26052,
  "cloying</w>": 32369,
  "clu": 1371,
  "club": 23456,
  "club</w>": 3382,
  "clubbing</w>": 36932,
  "clubhouse</w>": 25829,
  "clubs</w>": 11116,
  "clucked</w>": 27128,
  "clucking</w>": 37817,
  "clue</w>": 5511,
  "clueless</w>": 17706,
  "clues</w>": 11524,
  "clum": 17172,
  "clump</w>": 19167,
  "clumps</w>": 21829,
  "clumsily</w>": 19485,
  "clumsy</w>": 12843,
  "clun": 31065,
  "clung</w>": 6869,
  "clunk</w>": 32397,
  "clus</w>": 23622,
  "cluster</w>": 12832,
  "clustered</w>": 17854,
  "clusters</w>": 22905,
  "clut": 4042,
  "clutch</w>": 12306,
  "clutched</w>": 6205,
  "clutches</w>": 18395,
  "clutching</w>": 6716,
  "clutter</w>": 23782,
  "cluttered</w>": 18048,
  "cly": 14787,
  "clyde</w>": 15935,
  "cm</w>": 30378,
  "cnn</w>": 29871,
  "co": 588,
  "co</w>": 3833,
  "coa": 8028,
  "coach": 25733,
  "coach</w>": 6072,
  "coached</w>": 38823,
  "coaches</w>": 24472,
  "coaching</w>": 29737,
  "coachman</w>": 28234,
  "coag": 38678,
  "coal": 20655,
  "coal</w>": 9664,
  "coale": 30129,
  "coalesced</w>": 35685,
  "coalition</w>": 25184,
  "coals</w>": 18642,
  "coarse</w>": 17195,
  "coast": 16180,
  "coast</w>": 6610,
  "coastal</w>": 24094,
  "coasted</w>": 34572,
  "coaster</w>": 17763,
  "coastline</w>": 26283,
  "coat": 38296,
  "coat</w>": 3135,
  "coated</w>": 11364,
  "coating</w>": 17533,
  "coats</w>": 10213,
  "coax</w>": 22842,
  "coaxed</w>": 18332,
  "coaxing</w>": 20600,
  "cob": 10221,
  "cob</w>": 40215,
  "cobalt</w>": 26208,
  "cobb</w>": 28103,
  "cobble": 17392,
  "cobbled</w>": 27218,
  "cobbler</w>": 37930,
  "cobbles</w>": 32507,
  "cobblestone</w>": 25371,
  "cobblestones</w>": 26025,
  "cobra</w>": 24751,
  "cobwebs</w>": 20337,
  "coca</w>": 35229,
  "cocaine</w>": 21195,
  "cock": 6467,
  "cock</w>": 5104,
  "cocked</w>": 6309,
  "cocking</w>": 21010,
  "cockpit</w>": 12532,
  "cockroach</w>": 33525,
  "cockroaches</w>": 33578,
  "cocks</w>": 20718,
  "cocktail</w>": 13019,
  "cocktails</w>": 26631,
  "cocky</w>": 12186,
  "coco": 12310,
  "coco</w>": 34751,
  "cocoa</w>": 20613,
  "cocon": 19451,
  "coconut</w>": 21758,
  "cocoon</w>": 20268,
  "cocooned</w>": 37898,
  "cod</w>": 33266,
  "code</w>": 5582,
  "coded</w>": 20925,
  "codes</w>": 16701,
  "codex</w>": 35032,
  "coding</w>": 33927,
  "cody</w>": 9200,
  "coe</w>": 21811,
  "coer": 22078,
  "coerced</w>": 36652,
  "coffe": 2131,
  "coffee": 19336,
  "coffee</w>": 2169,
  "coffeemaker</w>": 33693,
  "coffeepot</w>": 31650,
  "coffees</w>": 26081,
  "coffin</w>": 10749,
  "coffins</w>": 27600,
  "cog": 24402,
  "cog</w>": 36931,
  "cogn": 25936,
  "cognac</w>": 32451,
  "cogni": 40341,
  "cognitive</w>": 33880,
  "cogniz": 37816,
  "cogs</w>": 37193,
  "cohen</w>": 17368,
  "coher": 11437,
  "coherent</w>": 13368,
  "coherently</w>": 29041,
  "cohort</w>": 36992,
  "cohorts</w>": 31778,
  "coi": 37143,
  "coil</w>": 18889,
  "coiled</w>": 12950,
  "coiling</w>": 24540,
  "coils</w>": 23529,
  "coin": 34164,
  "coin</w>": 8763,
  "coinci": 7026,
  "coincidence</w>": 9183,
  "coincidences</w>": 28313,
  "coincidental</w>": 19584,
  "coincidentally</w>": 38754,
  "coins</w>": 10086,
  "coke</w>": 10502,
  "col": 1069,
  "col</w>": 12066,
  "cola</w>": 23031,
  "colbie</w>": 40340,
  "colby</w>": 10984,
  "cold": 20548,
  "cold</w>": 1705,
  "colder</w>": 13317,
  "coldest</w>": 35660,
  "coldhand</w>": 29173,
  "coldly</w>": 11410,
  "coldness</w>": 17064,
  "cole": 22733,
  "cole</w>": 3741,
  "coleman</w>": 29385,
  "colette</w>": 18716,
  "colfax</w>": 38336,
  "coli</w>": 25707,
  "colin</w>": 5786,
  "colise": 36613,
  "coliseum</w>": 36930,
  "collabor": 23872,
  "collap": 4197,
  "collapse</w>": 9823,
  "collapsed</w>": 5682,
  "collapses</w>": 25414,
  "collapsing</w>": 14666,
  "collar": 12136,
  "collar</w>": 5832,
  "collarbone</w>": 14768,
  "collared</w>": 28413,
  "collars</w>": 24063,
  "collateral</w>": 26264,
  "colle": 2231,
  "colleague</w>": 15349,
  "colleagues</w>": 11867,
  "collect</w>": 7610,
  "collected</w>": 7797,
  "collecting</w>": 11829,
  "collection</w>": 6640,
  "collections</w>": 23792,
  "collective</w>": 13223,
  "collectively</w>": 32169,
  "collector</w>": 24062,
  "collectors</w>": 33179,
  "collects</w>": 33712,
  "colleen</w>": 23570,
  "college</w>": 3797,
  "colleges</w>": 30752,
  "colli": 8819,
  "collide</w>": 28144,
  "collided</w>": 14791,
  "colliding</w>": 23847,
  "collie</w>": 35340,
  "collin</w>": 14299,
  "colling</w>": 16984,
  "collins</w>": 12746,
  "collision</w>": 19528,
  "colm</w>": 9386,
  "colo": 14567,
  "colo</w>": 19201,
  "cologne</w>": 14279,
  "colon": 5916,
  "colon</w>": 21162,
  "colonel</w>": 6736,
  "coloni": 14383,
  "colonial</w>": 22759,
  "colonies</w>": 18641,
  "colonists</w>": 28174,
  "colony</w>": 12057,
  "color": 7309,
  "color</w>": 3184,
  "colorado</w>": 13956,
  "colored</w>": 5045,
  "colorful</w>": 10685,
  "coloring</w>": 17736,
  "colorless</w>": 27437,
  "colors</w>": 5879,
  "colossal</w>": 20255,
  "colour": 25807,
  "colour</w>": 10208,
  "coloured</w>": 14785,
  "colourful</w>": 29416,
  "colours</w>": 16815,
  "cols</w>": 30343,
  "colt</w>": 6768,
  "colton</w>": 11264,
  "colu": 6081,
  "colum": 10935,
  "colum</w>": 37815,
  "columbia</w>": 22597,
  "columbus</w>": 29763,
  "column</w>": 9617,
  "columns</w>": 12727,
  "com": 690,
  "com</w>": 5259,
  "coma</w>": 13949,
  "comat": 27688,
  "comatose</w>": 28087,
  "comb": 3841,
  "comb</w>": 12828,
  "combat": 26561,
  "combat</w>": 8091,
  "combatants</w>": 30128,
  "combed</w>": 14816,
  "combination</w>": 7947,
  "combinations</w>": 29736,
  "combine</w>": 23667,
  "combined</w>": 9126,
  "combing</w>": 24003,
  "combining</w>": 34108,
  "combo</w>": 32297,
  "combs</w>": 33208,
  "combu": 29693,
  "combust</w>": 34451,
  "combustion</w>": 37520,
  "come": 11812,
  "come</w>": 848,
  "comeback</w>": 25806,
  "comedian</w>": 36574,
  "comedy</w>": 20267,
  "comer</w>": 36246,
  "comes</w>": 2323,
  "comet</w>": 19619,
  "comfor": 1838,
  "comfort</w>": 4193,
  "comfortable</w>": 2589,
  "comfortably</w>": 7423,
  "comforted</w>": 14065,
  "comforter</w>": 15236,
  "comforting</w>": 7712,
  "comfortingly</w>": 39320,
  "comforts</w>": 25101,
  "comfy</w>": 20499,
  "comic</w>": 17646,
  "comical</w>": 21125,
  "comically</w>": 34325,
  "comics</w>": 31887,
  "comin</w>": 17498,
  "coming</w>": 1274,
  "comings</w>": 24265,
  "comm": 1640,
  "comm</w>": 17573,
  "comman": 3223,
  "command</w>": 4244,
  "commandant</w>": 37028,
  "commande": 32234,
  "commanded</w>": 7389,
  "commandeered</w>": 35192,
  "commander</w>": 5640,
  "commanders</w>": 22288,
  "commanding</w>": 11929,
  "commandments</w>": 39838,
  "commando</w>": 25455,
  "commandos</w>": 38865,
  "commands</w>": 11579,
  "commemor": 36651,
  "commen": 7365,
  "commence</w>": 26024,
  "commenced</w>": 23925,
  "commend</w>": 13987,
  "comment</w>": 4923,
  "commentary</w>": 24013,
  "commented</w>": 8589,
  "commenting</w>": 26914,
  "comments</w>": 8981,
  "commer": 21525,
  "commerce</w>": 21667,
  "commerci": 9874,
  "commercial</w>": 10998,
  "commercials</w>": 29349,
  "commiser": 33953,
  "commiss": 38218,
  "commissi": 14887,
  "commission</w>": 13823,
  "commissioned</w>": 25475,
  "commissioner</w>": 20982,
  "commit": 6606,
  "commit</w>": 11423,
  "commitment</w>": 11358,
  "commitments</w>": 31515,
  "committed</w>": 7834,
  "committee</w>": 11566,
  "committees</w>": 40385,
  "committing</w>": 19572,
  "commo": 8497,
  "commodity</w>": 30667,
  "common": 16394,
  "common</w>": 4084,
  "commoner</w>": 40214,
  "commoners</w>": 39633,
  "commonly</w>": 22295,
  "commonplace</w>": 32086,
  "commons</w>": 30031,
  "commonwealth</w>": 33763,
  "commotion</w>": 11699,
  "comms</w>": 35406,
  "commu": 25974,
  "commun": 3197,
  "communal</w>": 26366,
  "commune</w>": 22799,
  "communi": 21037,
  "communic": 4629,
  "communicate</w>": 10616,
  "communicated</w>": 20417,
  "communicating</w>": 18743,
  "communication</w>": 8932,
  "communications</w>": 12418,
  "communicator</w>": 27574,
  "communion</w>": 29009,
  "communist</w>": 27510,
  "communists</w>": 38719,
  "communities</w>": 23376,
  "community</w>": 6267,
  "commute</w>": 34297,
  "commuters</w>": 39714,
  "como": 31973,
  "como</w>": 34998,
  "comp": 1047,
  "comp</w>": 31442,
  "compact</w>": 17919,
  "compan": 5709,
  "compani": 7402,
  "companies</w>": 10900,
  "companion": 38294,
  "companion</w>": 7338,
  "companionable</w>": 32787,
  "companions</w>": 9119,
  "companionship</w>": 20241,
  "companionway</w>": 39232,
  "company</w>": 2600,
  "compar": 4826,
  "comparable</w>": 31441,
  "comparatively</w>": 40000,
  "compare</w>": 12975,
  "compared</w>": 6787,
  "comparing</w>": 20639,
  "comparison</w>": 11078,
  "compart": 38522,
  "compartmen": 39365,
  "compartment</w>": 11527,
  "compartments</w>": 30692,
  "compas": 7691,
  "compass</w>": 15191,
  "compassion</w>": 10520,
  "compassionate</w>": 20444,
  "compati": 22400,
  "compatible</w>": 24865,
  "compatri": 35739,
  "compe": 5008,
  "compel</w>": 28125,
  "compelled</w>": 12729,
  "compelling</w>": 16738,
  "compen": 12559,
  "compensate</w>": 23761,
  "compensated</w>": 33799,
  "compensation</w>": 24308,
  "compet": 8331,
  "compete</w>": 16686,
  "competed</w>": 34197,
  "competen": 21604,
  "competence</w>": 23179,
  "competent</w>": 14345,
  "competing</w>": 20896,
  "competit": 21096,
  "competition</w>": 9947,
  "competitions</w>": 39669,
  "competitive</w>": 21394,
  "competitor</w>": 34620,
  "competitors</w>": 26716,
  "compiled</w>": 35492,
  "compla": 5027,
  "complac": 23658,
  "complacent</w>": 31649,
  "complain</w>": 9918,
  "complained</w>": 8952,
  "complaining</w>": 10953,
  "complains</w>": 33122,
  "complaint</w>": 14153,
  "complaints</w>": 16092,
  "comple": 1510,
  "complement</w>": 28102,
  "complemented</w>": 33383,
  "complete</w>": 3205,
  "completed</w>": 7826,
  "completely</w>": 2055,
  "completing</w>": 20173,
  "completion</w>": 20029,
  "complex": 12139,
  "complex</w>": 6881,
  "complexion</w>": 14733,
  "complexity</w>": 27720,
  "compli": 6268,
  "compliance</w>": 29599,
  "compliant</w>": 36151,
  "complic": 5437,
  "complicate</w>": 28101,
  "complicated</w>": 6389,
  "complication</w>": 28284,
  "complications</w>": 19571,
  "complied</w>": 17180,
  "compliment</w>": 9863,
  "complimentary</w>": 30361,
  "complimented</w>": 21800,
  "complimenting</w>": 37349,
  "compliments</w>": 15946,
  "comply</w>": 19266,
  "compo": 35526,
  "compon": 17693,
  "component</w>": 28672,
  "components</w>": 23072,
  "compose</w>": 18002,
  "composed</w>": 10945,
  "composing</w>": 25169,
  "composit": 37256,
  "composite</w>": 39837,
  "composition</w>": 22959,
  "composure</w>": 10903,
  "compound</w>": 8089,
  "compounded</w>": 34600,
  "compounds</w>": 35285,
  "compre": 6776,
  "comprehen": 9994,
  "comprehend</w>": 11637,
  "comprehended</w>": 38451,
  "comprehending</w>": 28233,
  "comprehensible</w>": 21610,
  "comprehension</w>": 17432,
  "comprehensive</w>": 35260,
  "compress</w>": 35031,
  "compressed</w>": 21143,
  "compression</w>": 39743,
  "compri": 21367,
  "comprised</w>": 24987,
  "compromise</w>": 14630,
  "compromised</w>": 17830,
  "compromising</w>": 24811,
  "compu": 2965,
  "compul": 11718,
  "compulsion</w>": 14150,
  "compulsive</w>": 33148,
  "computer</w>": 3337,
  "computerized</w>": 35435,
  "computers</w>": 9865,
  "comra": 11817,
  "comrade</w>": 19303,
  "comrades</w>": 16375,
  "coms</w>": 37255,
  "con": 625,
  "con</w>": 8537,
  "conall</w>": 35030,
  "conan</w>": 28741,
  "conc": 4919,
  "conce": 5455,
  "conceal": 27027,
  "conceal</w>": 12815,
  "concealed</w>": 10199,
  "concealing</w>": 20240,
  "concealment</w>": 30820,
  "concede</w>": 22607,
  "conceded</w>": 13539,
  "conceding</w>": 39319,
  "concei": 17879,
  "conceited</w>": 33798,
  "conceivable</w>": 21623,
  "conceivably</w>": 38293,
  "conceive</w>": 22608,
  "conceived</w>": 17466,
  "concentr": 3709,
  "concentrate</w>": 7048,
  "concentrated</w>": 8376,
  "concentrating</w>": 11483,
  "concentration</w>": 8680,
  "concep": 18814,
  "concept</w>": 9826,
  "conception</w>": 24335,
  "conceptions</w>": 40421,
  "concepts</w>": 24480,
  "concer": 2120,
  "concern</w>": 3775,
  "concerned</w>": 3449,
  "concerning</w>": 12922,
  "concerns</w>": 9437,
  "concert</w>": 11921,
  "concerts</w>": 30087,
  "concession</w>": 22043,
  "concessions</w>": 40087,
  "conci": 12293,
  "concierge</w>": 26496,
  "concili": 34653,
  "conciliatory</w>": 37481,
  "conclave</w>": 33121,
  "conclu": 4843,
  "conclude</w>": 21715,
  "concluded</w>": 9809,
  "concludes</w>": 35578,
  "concluding</w>": 36991,
  "conclusion</w>": 8535,
  "conclusions</w>": 15016,
  "conclusive</w>": 32085,
  "conco": 16127,
  "concocted</w>": 31303,
  "concoction</w>": 24669,
  "concord</w>": 37691,
  "concourse</w>": 34324,
  "concrete</w>": 5721,
  "concu": 12427,
  "concubine</w>": 34274,
  "concur": 28302,
  "concur</w>": 39194,
  "concurred</w>": 30517,
  "concussion</w>": 17436,
  "condem": 11593,
  "condemn</w>": 25183,
  "condemnation</w>": 31626,
  "condemned</w>": 17726,
  "condemning</w>": 35191,
  "conden": 21539,
  "condensation</w>": 31489,
  "condensed</w>": 34904,
  "condescen": 27996,
  "condescending</w>": 20736,
  "condescension</w>": 34377,
  "conditi": 6553,
  "condition</w>": 5853,
  "conditional</w>": 26998,
  "conditionally</w>": 35989,
  "conditioned</w>": 22279,
  "conditioner</w>": 22704,
  "conditioning</w>": 15427,
  "conditions</w>": 9920,
  "condo": 24507,
  "condo</w>": 12610,
  "condolences</w>": 26442,
  "condom</w>": 10656,
  "condomin": 37550,
  "condoms</w>": 16206,
  "condone</w>": 36973,
  "condos</w>": 39195,
  "condu": 8892,
  "conduc": 15208,
  "conducive</w>": 39193,
  "conduct</w>": 13799,
  "conducted</w>": 17987,
  "conducting</w>": 22856,
  "conductor</w>": 24959,
  "conduit</w>": 26099,
  "cone</w>": 15487,
  "cones</w>": 27964,
  "confe": 4783,
  "confec": 36374,
  "confeder": 19504,
  "confederacy</w>": 36314,
  "confederate</w>": 30303,
  "confer": 28847,
  "confer</w>": 35930,
  "conference</w>": 7138,
  "conferences</w>": 32042,
  "conferred</w>": 34552,
  "confess</w>": 11311,
  "confessed</w>": 10006,
  "confessing</w>": 28940,
  "confession</w>": 11030,
  "confessional</w>": 38589,
  "confessions</w>": 31831,
  "confetti</w>": 35577,
  "confi": 2917,
  "confid": 9517,
  "confidant</w>": 35284,
  "confide</w>": 22294,
  "confided</w>": 18319,
  "confidence</w>": 5310,
  "confident</w>": 5469,
  "confidenti": 30011,
  "confidential</w>": 18411,
  "confidentiality</w>": 30257,
  "confidently</w>": 13579,
  "confiding</w>": 38264,
  "configur": 32786,
  "configuration</w>": 36211,
  "confin": 8786,
  "confined</w>": 14625,
  "confinement</w>": 24586,
  "confines</w>": 15344,
  "confining</w>": 38263,
  "confir": 4884,
  "confirm</w>": 9890,
  "confirmation</w>": 12639,
  "confirmed</w>": 6396,
  "confirming</w>": 18129,
  "confirms</w>": 25335,
  "confisc": 21828,
  "confiscated</w>": 26454,
  "confla": 38484,
  "conflagration</w>": 40041,
  "confli": 8090,
  "conflict</w>": 11151,
  "conflicted</w>": 22120,
  "conflicting</w>": 22441,
  "conflicts</w>": 28385,
  "conform</w>": 39668,
  "confounded</w>": 32296,
  "confron": 7329,
  "confront</w>": 11895,
  "confrontation</w>": 12441,
  "confronted</w>": 12576,
  "confronting</w>": 23528,
  "confu": 3788,
  "confuse</w>": 18977,
  "confused</w>": 3296,
  "confusing</w>": 11263,
  "confusion</w>": 4515,
  "conge": 22897,
  "congealed</w>": 35491,
  "congested</w>": 37583,
  "conglomer": 27865,
  "conglomerate</w>": 32854,
  "congo</w>": 37191,
  "congr": 21533,
  "congrat": 8600,
  "congrats</w>": 36899,
  "congratu": 26618,
  "congratul": 8606,
  "congratulate</w>": 23335,
  "congratulated</w>": 24734,
  "congratulating</w>": 33762,
  "congratulations</w>": 10827,
  "congre": 12346,
  "congreg": 14580,
  "congregated</w>": 35813,
  "congregation</w>": 18093,
  "congress</w>": 19116,
  "congressional</w>": 40040,
  "congressman</w>": 23811,
  "congru": 24264,
  "conj": 11356,
  "conjec": 28222,
  "conjecture</w>": 34483,
  "conju": 39742,
  "conjunction</w>": 37744,
  "conjure</w>": 20475,
  "conjured</w>": 17730,
  "conjuring</w>": 31556,
  "conklin</w>": 24630,
  "conlan</w>": 36873,
  "conley</w>": 34400,
  "conn": 30518,
  "conne": 2459,
  "connect</w>": 8886,
  "connected</w>": 4639,
  "connecti": 24471,
  "connecticut</w>": 25550,
  "connecting</w>": 11773,
  "connection</w>": 4586,
  "connections</w>": 11143,
  "connects</w>": 25091,
  "connell</w>": 22631,
  "connelly</w>": 32346,
  "conner</w>": 11248,
  "conni": 27847,
  "connie</w>": 13651,
  "conniving</w>": 35078,
  "conno": 18213,
  "connolly</w>": 26175,
  "connor</w>": 4485,
  "connors</w>": 39440,
  "conor</w>": 12842,
  "conqu": 10550,
  "conquer": 29673,
  "conquer</w>": 17824,
  "conquered</w>": 20080,
  "conquering</w>": 33265,
  "conqueror</w>": 35525,
  "conquest</w>": 21443,
  "conquests</w>": 33667,
  "conrad</w>": 12296,
  "cons</w>": 20915,
  "consci": 4225,
  "conscience</w>": 10258,
  "conscienti": 36186,
  "conscious</w>": 3979,
  "consciously</w>": 9734,
  "consciousness</w>": 6417,
  "consecu": 37294,
  "consecutive</w>": 39192,
  "consen": 19232,
  "consensus</w>": 28500,
  "consent</w>": 15540,
  "consented</w>": 34074,
  "consequ": 6214,
  "consequence</w>": 15992,
  "consequences</w>": 8157,
  "consequential</w>": 27058,
  "consequently</w>": 24216,
  "conserv": 13301,
  "conservative</w>": 16726,
  "conservatory</w>": 33622,
  "conserve</w>": 32991,
  "consi": 1753,
  "consider": 5852,
  "consider</w>": 4055,
  "considerable</w>": 11793,
  "considerably</w>": 13661,
  "considerate</w>": 19321,
  "consideration</w>": 12336,
  "considerations</w>": 33463,
  "considered</w>": 3136,
  "considering</w>": 4222,
  "considers</w>": 20767,
  "consist": 13507,
  "consist</w>": 35866,
  "consisted</w>": 13185,
  "consistency</w>": 30173,
  "consistent</w>": 19154,
  "consistently</w>": 28572,
  "consisting</w>": 26237,
  "consists</w>": 30470,
  "conso": 16455,
  "consol": 17692,
  "consolation</w>": 19196,
  "console</w>": 9761,
  "consoled</w>": 31420,
  "consoles</w>": 37065,
  "consoli": 32676,
  "consoling</w>": 33120,
  "consor": 35990,
  "consort</w>": 21701,
  "consortium</w>": 36972,
  "conspic": 15348,
  "conspicuous</w>": 18398,
  "conspicuously</w>": 29907,
  "conspir": 8909,
  "conspiracy</w>": 13997,
  "conspirat": 21014,
  "conspirator</w>": 40469,
  "conspiratorial</w>": 29059,
  "conspiratorially</w>": 31064,
  "conspirators</w>": 35405,
  "conspired</w>": 34004,
  "conspiring</w>": 35228,
  "const": 4293,
  "constable</w>": 14588,
  "constan": 14051,
  "constance</w>": 17996,
  "constant</w>": 5997,
  "constanti": 27509,
  "constantijin</w>": 27573,
  "constantine</w>": 26008,
  "constantly</w>": 6536,
  "constell": 23894,
  "constellation</w>": 34962,
  "constellations</w>": 32828,
  "conster": 24328,
  "consternation</w>": 24619,
  "constitu": 17179,
  "constitute</w>": 38136,
  "constituted</w>": 31886,
  "constitution</w>": 22468,
  "constitutional</w>": 32566,
  "constra": 30275,
  "constrained</w>": 38097,
  "constraints</w>": 36507,
  "constri": 14655,
  "constrict</w>": 38137,
  "constricted</w>": 20612,
  "constricting</w>": 31302,
  "constru": 9445,
  "construct</w>": 20133,
  "constructed</w>": 12380,
  "constructing</w>": 35955,
  "construction</w>": 8426,
  "constructive</w>": 37104,
  "construed</w>": 35157,
  "consu": 4626,
  "consul": 8666,
  "consul</w>": 29615,
  "consulate</w>": 38057,
  "consult</w>": 20024,
  "consultant</w>": 22682,
  "consultants</w>": 39468,
  "consultation</w>": 33851,
  "consulted</w>": 20524,
  "consulting</w>": 20784,
  "consume</w>": 14419,
  "consumed</w>": 7951,
  "consumer</w>": 39961,
  "consumes</w>": 34599,
  "consuming</w>": 12073,
  "consumm": 36093,
  "consummate</w>": 30913,
  "consumption</w>": 24937,
  "cont": 981,
  "conta": 16870,
  "contact</w>": 3087,
  "contacted</w>": 12131,
  "contacting</w>": 23000,
  "contacts</w>": 11244,
  "contag": 17805,
  "contagious</w>": 19664,
  "contain": 8015,
  "contain</w>": 8699,
  "contained</w>": 6614,
  "container</w>": 10807,
  "containers</w>": 16507,
  "containing</w>": 11523,
  "containment</w>": 26958,
  "contains</w>": 17815,
  "contaminated</w>": 27155,
  "contamination</w>": 30469,
  "contem": 6541,
  "contemp": 9087,
  "contempl": 7563,
  "contemplate</w>": 16725,
  "contemplated</w>": 13076,
  "contemplating</w>": 13485,
  "contemplation</w>": 21706,
  "contemplative</w>": 31174,
  "contemporary</w>": 22798,
  "contempt</w>": 12462,
  "contemptuous</w>": 30751,
  "contemptuously</w>": 36971,
  "conten": 4591,
  "contend</w>": 25506,
  "content</w>": 6413,
  "contented</w>": 18080,
  "contentedly</w>": 25256,
  "contention</w>": 36813,
  "contentment</w>": 15991,
  "contents</w>": 6176,
  "contessa</w>": 39046,
  "contest": 25370,
  "contest</w>": 12107,
  "contestants</w>": 34817,
  "contests</w>": 35029,
  "context</w>": 18429,
  "contin": 1399,
  "continent</w>": 14047,
  "continental</w>": 24498,
  "continents</w>": 29832,
  "conting": 18125,
  "contingency</w>": 31555,
  "contingent</w>": 25023,
  "continu": 1425,
  "continual</w>": 28232,
  "continually</w>": 16021,
  "continue</w>": 3423,
  "continued</w>": 1787,
  "continues</w>": 7025,
  "continuing</w>": 7483,
  "continuity</w>": 39960,
  "continuous</w>": 18608,
  "continuously</w>": 20139,
  "continuum</w>": 40138,
  "contorted</w>": 15662,
  "contorting</w>": 38096,
  "contours</w>": 23026,
  "contr": 5275,
  "contra": 6066,
  "contraband</w>": 34248,
  "contrac": 9648,
  "contract</w>": 7049,
  "contracted</w>": 17954,
  "contracting</w>": 29333,
  "contraction</w>": 29040,
  "contractions</w>": 28571,
  "contractor</w>": 24948,
  "contractors</w>": 31375,
  "contracts</w>": 16724,
  "contradic": 12626,
  "contradict</w>": 28252,
  "contradicted</w>": 30750,
  "contradiction</w>": 27766,
  "contradictions</w>": 38864,
  "contradictory</w>": 34041,
  "contraption</w>": 23240,
  "contrary</w>": 12005,
  "contrast</w>": 10329,
  "contrasted</w>": 26605,
  "contrasting</w>": 32827,
  "contri": 24640,
  "contribu": 9899,
  "contribute</w>": 21994,
  "contributed</w>": 21386,
  "contributing</w>": 33017,
  "contribution</w>": 22941,
  "contributions</w>": 31190,
  "contrite</w>": 30302,
  "contrived</w>": 31713,
  "contro": 22414,
  "control": 9240,
  "control</w>": 1959,
  "controlla": 10743,
  "controlled</w>": 6934,
  "controller</w>": 23455,
  "controlling</w>": 10977,
  "controls</w>": 11005,
  "controver": 24121,
  "controversial</w>": 33621,
  "controversy</w>": 36772,
  "conun": 36338,
  "conundrum</w>": 37897,
  "conve": 22533,
  "conven": 5647,
  "conveni": 6272,
  "convenience</w>": 11578,
  "convenient</w>": 9925,
  "conveniently</w>": 19352,
  "convent</w>": 17218,
  "conventi": 15507,
  "convention</w>": 18516,
  "conventional</w>": 17750,
  "conver": 7990,
  "converged</w>": 29111,
  "converging</w>": 36573,
  "convers": 2148,
  "conversation</w>": 2293,
  "conversational</w>": 24929,
  "conversationally</w>": 31348,
  "conversations</w>": 8221,
  "converse</w>": 16644,
  "conversed</w>": 33879,
  "conversing</w>": 25656,
  "conversion</w>": 25221,
  "convert</w>": 22584,
  "converted</w>": 16251,
  "convertible</w>": 20645,
  "converting</w>": 37773,
  "convey": 37482,
  "convey</w>": 16727,
  "conveyed</w>": 20909,
  "conveying</w>": 36872,
  "conveyor</w>": 35259,
  "convic": 8237,
  "convict</w>": 25505,
  "convicted</w>": 20626,
  "conviction</w>": 11836,
  "convictions</w>": 31324,
  "convicts</w>": 37622,
  "convin": 2881,
  "convince</w>": 5163,
  "convinced</w>": 4521,
  "convincing</w>": 9700,
  "convincingly</w>": 29582,
  "convolu": 31396,
  "convoluted</w>": 33099,
  "convoy</w>": 22365,
  "convul": 11275,
  "convulse</w>": 39082,
  "convulsed</w>": 21559,
  "convulsing</w>": 27081,
  "convulsions</w>": 33666,
  "convulsively</w>": 32826,
  "conway</w>": 31731,
  "conyn</w>": 39002,
  "coo": 2839,
  "coo</w>": 35579,
  "cooed</w>": 20232,
  "cooing</w>": 31576,
  "cook": 24864,
  "cook</w>": 5539,
  "cooked</w>": 9649,
  "cookie</w>": 11274,
  "cookies</w>": 9021,
  "cooking</w>": 6913,
  "cooks</w>": 21188,
  "cool": 8451,
  "cool</w>": 2548,
  "cooled</w>": 16000,
  "cooler</w>": 10476,
  "coolers</w>": 36540,
  "coolest</w>": 29977,
  "cooling</w>": 15551,
  "coolly</w>": 14993,
  "coolness</w>": 20403,
  "coon</w>": 20302,
  "coons</w>": 37623,
  "coop</w>": 14107,
  "cooped</w>": 30594,
  "cooper</w>": 7501,
  "cooperate</w>": 15194,
  "cooperated</w>": 39513,
  "cooperating</w>": 32368,
  "cooperation</w>": 17722,
  "cooperative</w>": 22982,
  "coordin": 9972,
  "coordinate</w>": 27963,
  "coordinated</w>": 22472,
  "coordinates</w>": 19048,
  "coordinating</w>": 37896,
  "coordination</w>": 29790,
  "coordinator</w>": 34714,
  "cop": 13457,
  "cop</w>": 5193,
  "cope</w>": 10915,
  "copied</w>": 17260,
  "copies</w>": 12374,
  "copilot</w>": 33547,
  "coping</w>": 22727,
  "copious</w>": 31237,
  "copper": 37142,
  "copper</w>": 10484,
  "coppers</w>": 36152,
  "coppery</w>": 27234,
  "cops</w>": 5422,
  "copse</w>": 31214,
  "copter</w>": 31539,
  "copy": 10676,
  "copy</w>": 5838,
  "copying</w>": 24239,
  "copyright</w>": 11840,
  "copyrighted</w>": 39045,
  "cor": 1055,
  "cor</w>": 19729,
  "cora</w>": 10007,
  "coral</w>": 15852,
  "coraline</w>": 27883,
  "corbin</w>": 18750,
  "cord</w>": 8760,
  "corded</w>": 32168,
  "cordelia</w>": 22082,
  "cordi": 34347,
  "cordial</w>": 27039,
  "cordless</w>": 35283,
  "cordo": 28546,
  "cordoned</w>": 39713,
  "cordova</w>": 33064,
  "cords</w>": 16656,
  "cordu": 34997,
  "corduroy</w>": 38557,
  "core</w>": 5820,
  "corey</w>": 22280,
  "cori</w>": 22681,
  "corin": 12954,
  "corinne</w>": 14120,
  "cork": 25491,
  "cork</w>": 19780,
  "corked</w>": 35055,
  "corkscrew</w>": 32344,
  "corky</w>": 27012,
  "cormac</w>": 37519,
  "cormel</w>": 33098,
  "corn": 9230,
  "corn</w>": 8289,
  "cornelia</w>": 39836,
  "cornelius</w>": 37582,
  "cornell</w>": 30622,
  "corner</w>": 2061,
  "cornered</w>": 15588,
  "corners</w>": 5981,
  "cornfield</w>": 39999,
  "cornwall</w>": 39998,
  "corny</w>": 31213,
  "coron": 19795,
  "corona</w>": 32345,
  "coronation</w>": 31079,
  "coroner</w>": 20958,
  "corozon</w>": 31909,
  "corp": 5942,
  "corp</w>": 31930,
  "corpo": 32645,
  "corpor": 6364,
  "corporal</w>": 14991,
  "corporate</w>": 11807,
  "corporation</w>": 14412,
  "corporations</w>": 24159,
  "corporeal</w>": 33821,
  "corps</w>": 16305,
  "corpse</w>": 7727,
  "corpses</w>": 11751,
  "corrado</w>": 23886,
  "corral</w>": 24074,
  "correc": 3359,
  "correct</w>": 4921,
  "corrected</w>": 8499,
  "correcting</w>": 28965,
  "correction</w>": 25195,
  "corrections</w>": 39632,
  "correctly</w>": 9695,
  "corrects</w>": 32041,
  "correspon": 19459,
  "correspondence</w>": 23429,
  "corresponding</w>": 30333,
  "corri": 4112,
  "corridor</w>": 4767,
  "corridors</w>": 11839,
  "corrie</w>": 35404,
  "corrigan</w>": 39631,
  "corrine</w>": 34073,
  "corro": 21609,
  "corrobor": 32675,
  "corru": 34163,
  "corrugated</w>": 35077,
  "corrup": 12783,
  "corrupt</w>": 17407,
  "corrupted</w>": 23469,
  "corruption</w>": 19177,
  "corset</w>": 21207,
  "corsi": 33740,
  "cort</w>": 25000,
  "cortez</w>": 30301,
  "corva</w>": 36771,
  "corvette</w>": 28330,
  "corvin": 36812,
  "corvindale</w>": 37103,
  "cory</w>": 13746,
  "cos</w>": 17045,
  "cosh</w>": 38374,
  "cosm": 24874,
  "cosme": 22881,
  "cosmetic</w>": 36373,
  "cosmetics</w>": 31712,
  "cosmic</w>": 22356,
  "cosmo": 20633,
  "cosmo</w>": 29008,
  "cosmos</w>": 26698,
  "cost</w>": 5142,
  "costa</w>": 27616,
  "costas</w>": 38295,
  "costing</w>": 31860,
  "costly</w>": 28899,
  "costs</w>": 12243,
  "costu": 8696,
  "costume</w>": 11018,
  "costumes</w>": 17497,
  "cosy</w>": 37192,
  "cot</w>": 11577,
  "cots</w>": 28159,
  "cott": 4511,
  "cott</w>": 24949,
  "cottage</w>": 7673,
  "cottages</w>": 26069,
  "cotton": 32931,
  "cotton</w>": 7034,
  "cou": 1289,
  "couch</w>": 3086,
  "couches</w>": 17041,
  "cougar</w>": 28885,
  "cough": 5750,
  "cough</w>": 10104,
  "coughed</w>": 7983,
  "coughing</w>": 10285,
  "coughlin</w>": 33119,
  "coughs</w>": 22364,
  "coul": 12724,
  "could": 21779,
  "could</w>": 635,
  "coulda</w>": 39318,
  "couldn't</w>": 39585,
  "couldn</w>": 34531,
  "couldna</w>": 40086,
  "coulter</w>": 24149,
  "coun": 1196,
  "counc": 16723,
  "counci": 39157,
  "council": 20363,
  "council</w>": 4483,
  "councillor</w>": 32417,
  "councilman</w>": 37621,
  "councilor</w>": 39191,
  "counsel": 9998,
  "counsel</w>": 15895,
  "counseling</w>": 22797,
  "counselor</w>": 14388,
  "counselors</w>": 31885,
  "count</w>": 3100,
  "countdown</w>": 26764,
  "counted</w>": 7198,
  "counten": 16869,
  "countenance</w>": 17388,
  "counter": 8418,
  "counter</w>": 2833,
  "counteract</w>": 38718,
  "countered</w>": 6644,
  "counterfe": 36506,
  "countering</w>": 28829,
  "counterpart</w>": 27776,
  "counterparts</w>": 31777,
  "counters</w>": 13088,
  "countertop</w>": 20537,
  "countertops</w>": 36695,
  "countess</w>": 14773,
  "counties</w>": 36118,
  "counting</w>": 7893,
  "countless</w>": 9501,
  "countries</w>": 11672,
  "country": 11622,
  "country</w>": 3138,
  "countrymen</w>": 37432,
  "countryside</w>": 12656,
  "counts</w>": 13136,
  "county</w>": 7605,
  "coup": 33147,
  "coup</w>": 22433,
  "couple</w>": 1919,
  "coupled</w>": 18640,
  "couples</w>": 11373,
  "coupling</w>": 33359,
  "cour": 1177,
  "coura": 22459,
  "courage</w>": 5932,
  "courageous</w>": 23893,
  "courier</w>": 21056,
  "coursa</w>": 35282,
  "course</w>": 1385,
  "coursed</w>": 16010,
  "courses</w>": 16768,
  "coursing</w>": 15928,
  "court": 11541,
  "court</w>": 3766,
  "courte": 9155,
  "courted</w>": 38789,
  "courteous</w>": 25797,
  "courteously</w>": 38788,
  "courtesy</w>": 11664,
  "courthouse</w>": 16294,
  "courtiers</w>": 33063,
  "courting</w>": 26441,
  "courtly</w>": 38335,
  "courtney</w>": 11042,
  "courtroom</w>": 13357,
  "courts</w>": 15213,
  "courtship</w>": 28705,
  "courty": 6993,
  "courtyard</w>": 7134,
  "cous": 5204,
  "cousin</w>": 5211,
  "cousins</w>": 10292,
  "couture</w>": 40306,
  "cove</w>": 14261,
  "coven": 19924,
  "coven</w>": 13305,
  "covenant</w>": 22691,
  "covens</w>": 39083,
  "cover": 8563,
  "cover</w>": 2454,
  "coverage</w>": 20057,
  "coveralls</w>": 30235,
  "covered</w>": 1809,
  "covering</w>": 4467,
  "coverlet</w>": 34162,
  "covers</w>": 5499,
  "covert</w>": 17874,
  "covertly</w>": 31730,
  "coveted</w>": 25443,
  "covington</w>": 40042,
  "cow": 6259,
  "cow</w>": 9781,
  "cowar": 25948,
  "coward</w>": 10222,
  "cowardice</w>": 26328,
  "cowardly</w>": 20577,
  "cowards</w>": 27082,
  "cowboy</w>": 9173,
  "cowboys</w>": 22383,
  "cowed</w>": 31688,
  "cower</w>": 27670,
  "cowered</w>": 23033,
  "cowering</w>": 20381,
  "cowgirl</w>": 29957,
  "cowl</w>": 30420,
  "coworker</w>": 38866,
  "coworkers</w>": 26400,
  "cows</w>": 14075,
  "cox</w>": 18525,
  "coy</w>": 13277,
  "coyle</w>": 29417,
  "coyly</w>": 27065,
  "coyo": 14699,
  "coyote</w>": 18001,
  "coyotes</w>": 27900,
  "cozy</w>": 12770,
  "cpr</w>": 35581,
  "cr": 1248,
  "cr</w>": 34963,
  "cra": 1222,
  "cra</w>": 37620,
  "crab": 38018,
  "crab</w>": 18896,
  "crabs</w>": 30952,
  "crack": 5939,
  "crack</w>": 4756,
  "cracked</w>": 4880,
  "cracker</w>": 23935,
  "crackers</w>": 17729,
  "cracking</w>": 9268,
  "crackle</w>": 17947,
  "crackled</w>": 13340,
  "crackles</w>": 40384,
  "crackling</w>": 13313,
  "cracks</w>": 9608,
  "cracy</w>": 15752,
  "cradle</w>": 13984,
  "cradled</w>": 10620,
  "cradles</w>": 38633,
  "cradling</w>": 13608,
  "craft": 22318,
  "craft</w>": 5438,
  "crafted</w>": 17901,
  "crafting</w>": 28301,
  "crafts</w>": 28846,
  "craftsman</w>": 38135,
  "craftsmanship</w>": 38217,
  "crafty</w>": 29300,
  "crag</w>": 34040,
  "cragg</w>": 35376,
  "craggy</w>": 25022,
  "crai": 10059,
  "craig</w>": 10487,
  "cram</w>": 31212,
  "crammed</w>": 14662,
  "cramp</w>": 25123,
  "cramped</w>": 11780,
  "cramping</w>": 31277,
  "cramps</w>": 28412,
  "cran": 10207,
  "cranberry</w>": 31711,
  "crane</w>": 16474,
  "craned</w>": 16348,
  "cranes</w>": 36726,
  "craning</w>": 24824,
  "crank</w>": 22203,
  "cranked</w>": 19115,
  "cranking</w>": 34870,
  "cranky</w>": 20069,
  "cranston</w>": 24073,
  "crap</w>": 4421,
  "crappy</w>": 16776,
  "crash</w>": 5854,
  "crashed</w>": 6323,
  "crashes</w>": 21748,
  "crashing</w>": 7225,
  "crass</w>": 31538,
  "crassus</w>": 36050,
  "crat</w>": 22771,
  "crate</w>": 13469,
  "crater</w>": 18692,
  "craters</w>": 40085,
  "crates</w>": 13169,
  "cratic</w>": 16034,
  "crats</w>": 24810,
  "cravat</w>": 32233,
  "crave</w>": 17944,
  "craved</w>": 11816,
  "craven</w>": 36372,
  "craving</w>": 13538,
  "cravings</w>": 32696,
  "craw": 10982,
  "crawford</w>": 19450,
  "crawl</w>": 7276,
  "crawled</w>": 5789,
  "crawler</w>": 39364,
  "crawley</w>": 37027,
  "crawling</w>": 8137,
  "crawls</w>": 26309,
  "cray": 36539,
  "cray</w>": 37480,
  "crayon</w>": 38017,
  "craz": 18623,
  "crazed</w>": 14329,
  "crazier</w>": 28411,
  "crazies</w>": 33304,
  "craziest</w>": 36150,
  "crazily</w>": 28158,
  "craziness</w>": 24061,
  "crazy</w>": 2450,
  "cre": 977,
  "crea": 3071,
  "creak</w>": 14926,
  "creaked</w>": 11969,
  "creaking</w>": 15105,
  "creaks</w>": 32040,
  "creaky</w>": 30691,
  "cream</w>": 4914,
  "creams</w>": 39317,
  "creamy</w>": 14965,
  "crease</w>": 8729,
  "creased</w>": 12915,
  "creases</w>": 23046,
  "creasing</w>": 30895,
  "create</w>": 5659,
  "created</w>": 4512,
  "creates</w>": 21156,
  "creating</w>": 7364,
  "creation</w>": 9878,
  "creations</w>": 23178,
  "creative</w>": 11756,
  "creativity</w>": 24657,
  "creator</w>": 15676,
  "creators</w>": 38944,
  "creature</w>": 3650,
  "creatures</w>": 4696,
  "cred": 5185,
  "credence</w>": 37102,
  "credentials</w>": 25504,
  "credi": 19891,
  "credibility</w>": 25921,
  "credible</w>": 32211,
  "credit": 36725,
  "credit</w>": 5918,
  "credited</w>": 36185,
  "credits</w>": 18809,
  "cree": 36572,
  "creed</w>": 14679,
  "creek</w>": 8360,
  "creep": 5642,
  "creep</w>": 10829,
  "creeped</w>": 31859,
  "creeper</w>": 36694,
  "creeping</w>": 9762,
  "creeps</w>": 17121,
  "creepy</w>": 8885,
  "cremated</w>": 38901,
  "cren": 35954,
  "crep": 20301,
  "crepsley</w>": 20542,
  "crept</w>": 6010,
  "crescen": 25528,
  "crescendo</w>": 27364,
  "crescent</w>": 17094,
  "cress</w>": 28755,
  "crest": 28086,
  "crest</w>": 13270,
  "crested</w>": 22440,
  "crestfallen</w>": 32587,
  "cresting</w>": 39190,
  "crete</w>": 5629,
  "crevas": 38412,
  "crevice</w>": 22239,
  "crevices</w>": 31830,
  "crew": 18575,
  "crew</w>": 4124,
  "crewe</w>": 24791,
  "crewman</w>": 35782,
  "crewmen</w>": 34196,
  "crews</w>": 15623,
  "cri": 2051,
  "crib</w>": 19257,
  "cricket</w>": 16655,
  "crickets</w>": 21739,
  "cried</w>": 2896,
  "cries</w>": 7018,
  "cril": 33524,
  "crime</w>": 5321,
  "crimes</w>": 11024,
  "crimin": 6065,
  "criminal</w>": 8169,
  "criminals</w>": 12979,
  "crimson</w>": 8354,
  "cringe</w>": 15913,
  "cringed</w>": 10027,
  "cringing</w>": 21666,
  "crink": 12316,
  "crinkle</w>": 34273,
  "crinkled</w>": 17471,
  "crinkling</w>": 30030,
  "cripple</w>": 25696,
  "crippled</w>": 18855,
  "crippling</w>": 27864,
  "crisis</w>": 11037,
  "crisp": 22372,
  "crisp</w>": 9238,
  "crispin</w>": 30874,
  "crisply</w>": 28621,
  "crispy</w>": 33620,
  "criss</w>": 36898,
  "crissc": 19554,
  "crisscrossed</w>": 26854,
  "crisscrossing</w>": 35953,
  "cristina</w>": 31102,
  "crit": 6451,
  "criteria</w>": 29581,
  "criti": 18970,
  "critias</w>": 27899,
  "critic</w>": 39882,
  "critical</w>": 10482,
  "critically</w>": 24250,
  "critici": 20261,
  "criticism</w>": 22925,
  "criticize</w>": 34296,
  "critics</w>": 34195,
  "critter</w>": 40383,
  "critters</w>": 34996,
  "cro": 1646,
  "cro</w>": 29172,
  "croa": 27299,
  "croak</w>": 21466,
  "croaked</w>": 14042,
  "crock": 26763,
  "crock</w>": 38450,
  "croco": 20834,
  "crocodile</w>": 24790,
  "croft</w>": 24775,
  "croiss": 28401,
  "croissant</w>": 38292,
  "crombie</w>": 24358,
  "cromwell</w>": 32565,
  "cron": 12974,
  "crone</w>": 33097,
  "cronies</w>": 29262,
  "cronus</w>": 16864,
  "croo": 8306,
  "crook": 29888,
  "crook</w>": 13874,
  "crooked</w>": 9339,
  "crookedly</w>": 31236,
  "crooks</w>": 36472,
  "crooned</w>": 24656,
  "crooning</w>": 39959,
  "crop</w>": 14170,
  "cropped</w>": 17618,
  "crops</w>": 16424,
  "cross": 7723,
  "cross</w>": 3465,
  "crossbow</w>": 15235,
  "crossbows</w>": 34072,
  "crossed</w>": 2711,
  "crosses</w>": 12552,
  "crossfire</w>": 35812,
  "crossing</w>": 6184,
  "crossly</w>": 34071,
  "crossroads</w>": 23217,
  "crossword</w>": 34843,
  "crotch</w>": 13489,
  "crou": 4963,
  "crouch</w>": 13948,
  "crouched</w>": 6715,
  "crouches</w>": 38900,
  "crouching</w>": 13975,
  "crow": 2091,
  "crow</w>": 10445,
  "crowbar</w>": 25695,
  "crowd</w>": 2529,
  "crowded</w>": 6132,
  "crowding</w>": 19129,
  "crowds</w>": 10571,
  "crowe</w>": 27508,
  "crowed</w>": 28808,
  "crowley</w>": 31148,
  "crown</w>": 7047,
  "crowned</w>": 22119,
  "crowning</w>": 38449,
  "crowns</w>": 34039,
  "crows</w>": 14714,
  "cru": 1904,
  "cruci": 10742,
  "crucial</w>": 15880,
  "crucified</w>": 38334,
  "crucifix</w>": 25995,
  "crude</w>": 12919,
  "crudely</w>": 31575,
  "cruel": 14018,
  "cruel</w>": 6622,
  "cruelly</w>": 24082,
  "cruelty</w>": 15872,
  "cruise</w>": 11451,
  "cruised</w>": 25694,
  "cruiser</w>": 13114,
  "cruisers</w>": 27335,
  "cruising</w>": 22630,
  "crumb</w>": 32327,
  "crumble</w>": 18777,
  "crumbled</w>": 15737,
  "crumbling</w>": 13112,
  "crumbs</w>": 17169,
  "crumple</w>": 30690,
  "crumpled</w>": 8891,
  "crumpling</w>": 31908,
  "crun": 7604,
  "crunch</w>": 14321,
  "crunched</w>": 16506,
  "crunching</w>": 15302,
  "crunchy</w>": 36650,
  "crusa": 20895,
  "crusade</w>": 33303,
  "crusader</w>": 38333,
  "crush</w>": 7543,
  "crushed</w>": 6945,
  "crushes</w>": 31514,
  "crushing</w>": 9211,
  "crust</w>": 19093,
  "crusted</w>": 16953,
  "crusty</w>": 24215,
  "crutch</w>": 22822,
  "crutches</w>": 21253,
  "crux</w>": 35028,
  "cruz</w>": 16959,
  "cry": 3732,
  "cry</w>": 2909,
  "crying</w>": 3480,
  "cryp": 12494,
  "crypt</w>": 19184,
  "cryptic</w>": 18631,
  "cryptically</w>": 36811,
  "crypto": 40339,
  "cryst": 4745,
  "crystal": 20152,
  "crystal</w>": 5334,
  "crystalline</w>": 26440,
  "crystals</w>": 14111,
  "cs</w>": 3791,
  "ct</w>": 2142,
  "cted</w>": 2267,
  "cthol</w>": 33765,
  "cti": 14447,
  "cting</w>": 5017,
  "ction": 38971,
  "ction</w>": 1716,
  "ctioned</w>": 37716,
  "ctions</w>": 3685,
  "ctive</w>": 8421,
  "ctively</w>": 24658,
  "ctly</w>": 34905,
  "ctor</w>": 8318,
  "ctors</w>": 16512,
  "cts</w>": 6257,
  "ctu": 24150,
  "ctuchik</w>": 38556,
  "cture</w>": 22575,
  "cu": 827,
  "cub</w>": 21380,
  "cuba</w>": 29831,
  "cuban</w>": 30853,
  "cubby</w>": 34652,
  "cube</w>": 15684,
  "cubes</w>": 22118,
  "cubic": 15269,
  "cubicle</w>": 18015,
  "cubicles</w>": 31126,
  "cubs</w>": 21658,
  "cuck": 34842,
  "cucu": 25818,
  "cucumber</w>": 30710,
  "cuddle</w>": 21823,
  "cuddled</w>": 18443,
  "cuddles</w>": 28828,
  "cuddling</w>": 22562,
  "cuddly</w>": 40261,
  "cuddy</w>": 22413,
  "cudg": 39667,
  "cue</w>": 8526,
  "cued</w>": 40084,
  "cues</w>": 28873,
  "cuff</w>": 13551,
  "cuffed</w>": 14110,
  "cuffs</w>": 8782,
  "cuis": 32506,
  "cuisine</w>": 32618,
  "cul": 3322,
  "cul</w>": 31235,
  "culann</w>": 24577,
  "cular</w>": 22269,
  "culated</w>": 28926,
  "culation</w>": 39630,
  "cule</w>": 32542,
  "culent</w>": 29516,
  "culin": 30556,
  "culinary</w>": 30644,
  "cullen</w>": 17953,
  "cullo": 39881,
  "cully</w>": 18781,
  "culmination</w>": 39316,
  "culpr": 21738,
  "culprit</w>": 24081,
  "cult</w>": 15178,
  "culti": 16519,
  "cultivated</w>": 28189,
  "cultural</w>": 15959,
  "culture</w>": 9607,
  "cultured</w>": 29110,
  "cultures</w>": 21892,
  "culum</w>": 38134,
  "cum</w>": 17249,
  "cumber": 25683,
  "cumbersome</w>": 33665,
  "cun": 11597,
  "cunn": 28964,
  "cunning</w>": 14718,
  "cunningham</w>": 31748,
  "cunt</w>": 15395,
  "cup": 8058,
  "cup</w>": 3026,
  "cupboard</w>": 12027,
  "cupboards</w>": 19764,
  "cupcake</w>": 23534,
  "cupcakes</w>": 24801,
  "cupid</w>": 28329,
  "cupped</w>": 6325,
  "cupping</w>": 11228,
  "cups</w>": 7420,
  "cur": 1039,
  "cur</w>": 28691,
  "curator</w>": 25947,
  "curb</w>": 8572,
  "curdling</w>": 28124,
  "cure</w>": 8107,
  "cured</w>": 15378,
  "cures</w>": 38863,
  "curfew</w>": 21635,
  "curi": 2744,
  "curing</w>": 33784,
  "curiosity</w>": 5580,
  "curious</w>": 4182,
  "curiously</w>": 8141,
  "curl</w>": 8252,
  "curled</w>": 3875,
  "curling</w>": 8472,
  "curls</w>": 6933,
  "curly</w>": 10835,
  "curran</w>": 13506,
  "curren": 3314,
  "currency</w>": 21955,
  "current</w>": 4675,
  "currently</w>": 7254,
  "currents</w>": 16667,
  "curri": 28508,
  "curry</w>": 20994,
  "curs</w>": 40039,
  "curse</w>": 5207,
  "cursed</w>": 5394,
  "curses</w>": 12846,
  "cursing</w>": 9372,
  "cursor</w>": 27038,
  "cursory</w>": 25778,
  "curt": 20678,
  "curt</w>": 13697,
  "curtain</w>": 7296,
  "curtained</w>": 30540,
  "curtains</w>": 7488,
  "curtis</w>": 16944,
  "curtly</w>": 16589,
  "curtsied</w>": 28157,
  "curtsy</w>": 24834,
  "curv": 34272,
  "curve</w>": 6567,
  "curved</w>": 6832,
  "curves</w>": 9071,
  "curving</w>": 13643,
  "curvy</w>": 20402,
  "cus</w>": 2421,
  "cused</w>": 2967,
  "cushi": 7668,
  "cushion</w>": 12836,
  "cushioned</w>": 21538,
  "cushions</w>": 12867,
  "cushy</w>": 38373,
  "cusp</w>": 36538,
  "cuss</w>": 33577,
  "cussing</w>": 38483,
  "custard</w>": 39512,
  "custo": 7539,
  "custodian</w>": 30978,
  "custody</w>": 11446,
  "custom": 4211,
  "custom</w>": 12741,
  "customary</w>": 17957,
  "customer</w>": 10793,
  "customers</w>": 8301,
  "customs</w>": 14939,
  "cut": 13644,
  "cut</w>": 1892,
  "cute</w>": 4957,
  "cutest</w>": 30730,
  "cuth": 22551,
  "cuthbert</w>": 24299,
  "cutie</w>": 40213,
  "cutlass</w>": 35156,
  "cutlery</w>": 30287,
  "cutoff</w>": 40212,
  "cuts</w>": 7601,
  "cutter</w>": 17771,
  "cutters</w>": 31323,
  "cutting</w>": 5161,
  "cutty</w>": 35122,
  "cuz</w>": 21246,
  "cy": 3113,
  "cy</w>": 1931,
  "cyber": 28487,
  "cyber</w>": 35738,
  "cybil</w>": 30274,
  "cyborg</w>": 35155,
  "cycle</w>": 7213,
  "cycled</w>": 37518,
  "cycles</w>": 15177,
  "cycli": 35121,
  "cycling</w>": 37929,
  "cyclo": 20924,
  "cyclone</w>": 33897,
  "cyclops</w>": 33648,
  "cylin": 13025,
  "cylinder</w>": 16922,
  "cylinders</w>": 30574,
  "cylindri": 32960,
  "cylindrical</w>": 33062,
  "cymb": 34223,
  "cyn": 9549,
  "cynic": 29989,
  "cynic</w>": 37026,
  "cynical</w>": 17980,
  "cynically</w>": 39511,
  "cynicism</w>": 31574,
  "cynthia</w>": 14242,
  "cypress</w>": 31884,
  "cyr": 31776,
  "cyril</w>": 31687,
  "cyrus</w>": 17642,
  "cze": 37587,
  "czech</w>": 39712,
  "cé": 30397,
  "cédes</w>": 36537,
  "d": 10,
  "d'": 7243,
  "d'al": 28300,
  "d'albret</w>": 30912,
  "d'ar": 15702,
  "d'artag": 19153,
  "d'artagnyn</w>": 19280,
  "d'oeuv": 39044,
  "d'ye</w>": 28652,
  "d'you</w>": 23666,
  "d.": 21700,
  "d.</w>": 9852,
  "d.c.</w>": 13877,
  "d</w>": 248,
  "da": 643,
  "da</w>": 1762,
  "dab": 11013,
  "dab</w>": 24999,
  "dabbed</w>": 18726,
  "dabbing</w>": 29039,
  "dable</w>": 19446,
  "dac": 33739,
  "daci": 35634,
  "dad": 33302,
  "dad</w>": 1650,
  "daddy</w>": 4500,
  "dade</w>": 36693,
  "dads</w>": 27037,
  "dae</w>": 32294,
  "daed": 36405,
  "daedalus</w>": 36970,
  "daelin</w>": 38717,
  "daelon</w>": 37814,
  "daem": 35952,
  "daemon</w>": 7763,
  "daf": 21532,
  "daffo": 30894,
  "daft</w>": 22713,
  "dag": 4540,
  "dag</w>": 29404,
  "dagdron</w>": 21592,
  "dagger</w>": 6180,
  "daggers</w>": 12888,
  "dagmar</w>": 20097,
  "dah": 13621,
  "dah</w>": 20557,
  "dahl</w>": 37581,
  "dahlaine</w>": 28014,
  "dahlia</w>": 21103,
  "dai": 21642,
  "dai</w>": 17070,
  "daily</w>": 6858,
  "daim": 15353,
  "daimon</w>": 22606,
  "daimons</w>": 23631,
  "dainti": 37690,
  "daintily</w>": 40420,
  "dainty</w>": 20748,
  "dair</w>": 15976,
  "dairy</w>": 27217,
  "dais</w>": 14532,
  "daisies</w>": 28671,
  "daisy</w>": 7098,
  "dak</w>": 17699,
  "dakota</w>": 15678,
  "dal": 3983,
  "dal</w>": 5454,
  "dale</w>": 7032,
  "daley</w>": 39156,
  "dali</w>": 31418,
  "dalinar</w>": 13760,
  "dall</w>": 10748,
  "dallas</w>": 8178,
  "dalton</w>": 9885,
  "dalya</w>": 38822,
  "dam": 1421,
  "dam</w>": 2811,
  "dama": 39043,
  "dama</w>": 23604,
  "damage</w>": 4716,
  "damaged</w>": 8530,
  "damages</w>": 31301,
  "damaging</w>": 24357,
  "dame</w>": 8135,
  "damen</w>": 19275,
  "dami": 6203,
  "damian</w>": 18163,
  "damien</w>": 7181,
  "damion</w>": 37928,
  "dammit</w>": 7666,
  "damn": 20864,
  "damn</w>": 1868,
  "damnable</w>": 36505,
  "damnation</w>": 25796,
  "damned</w>": 4354,
  "damnedest</w>": 33820,
  "damning</w>": 27127,
  "damnit</w>": 32990,
  "damo": 38262,
  "damon</w>": 7071,
  "damp": 12315,
  "damp</w>": 5393,
  "dampen</w>": 31147,
  "dampened</w>": 23216,
  "dampening</w>": 34003,
  "damper</w>": 40382,
  "dampness</w>": 24426,
  "damsel</w>": 30538,
  "dan": 2758,
  "dan'r</w>": 34903,
  "dan</w>": 2972,
  "dana</w>": 9121,
  "danc": 3734,
  "dance</w>": 2929,
  "danced</w>": 6201,
  "dancer</w>": 11511,
  "dancers</w>": 13759,
  "dances</w>": 16976,
  "dancing</w>": 4542,
  "dancy</w>": 40303,
  "dand": 22657,
  "dandelion</w>": 36724,
  "dandy</w>": 28845,
  "dane</w>": 7168,
  "daneel</w>": 21313,
  "danes</w>": 33358,
  "dang": 2428,
  "dang</w>": 18895,
  "danger": 2897,
  "danger</w>": 3534,
  "dangerous</w>": 3072,
  "dangerously</w>": 12076,
  "dangers</w>": 15129,
  "dangle</w>": 21406,
  "dangled</w>": 13328,
  "dangling</w>": 8930,
  "dani": 2947,
  "dani</w>": 10854,
  "dania</w>": 39231,
  "danica</w>": 22712,
  "daniel</w>": 3472,
  "daniela</w>": 34107,
  "daniella</w>": 32504,
  "danielle</w>": 14805,
  "daniels</w>": 15675,
  "danika</w>": 18231,
  "danish</w>": 28100,
  "dank": 38787,
  "dank</w>": 16171,
  "danni</w>": 16856,
  "danny</w>": 5246,
  "dant</w>": 6497,
  "dantalion</w>": 29348,
  "dante</w>": 6138,
  "dantly</w>": 34194,
  "dants</w>": 12447,
  "danvers</w>": 32039,
  "dany</w>": 22770,
  "daph": 12623,
  "daphne</w>": 12638,
  "dapper</w>": 40304,
  "dappled</w>": 28872,
  "dar": 947,
  "dar</w>": 4785,
  "dara</w>": 18848,
  "daran</w>": 34816,
  "darby</w>": 28051,
  "darcy</w>": 10009,
  "dardan</w>": 22851,
  "dardennes</w>": 34713,
  "dare": 28485,
  "dare</w>": 4203,
  "dared</w>": 7380,
  "daren</w>": 33738,
  "dares</w>": 31625,
  "daresay</w>": 31747,
  "daria</w>": 32000,
  "darian</w>": 33061,
  "daric</w>": 33207,
  "darice</w>": 38447,
  "darien</w>": 20969,
  "daries</w>": 13565,
  "darin</w>": 23846,
  "daring</w>": 10049,
  "dario</w>": 26853,
  "darius</w>": 8807,
  "dark": 2046,
  "dark</w>": 1294,
  "darken</w>": 20662,
  "darkened</w>": 6679,
  "darkening</w>": 13464,
  "darker</w>": 7621,
  "darkest</w>": 14523,
  "darkhaven</w>": 36810,
  "darkling</w>": 23481,
  "darklings</w>": 39542,
  "darkly</w>": 14133,
  "darkness</w>": 2458,
  "darla</w>": 17480,
  "darlene</w>": 30643,
  "darlin</w>": 14072,
  "darling</w>": 5988,
  "darmik</w>": 17598,
  "darn</w>": 15190,
  "darned</w>": 31672,
  "darnell</w>": 28266,
  "darrel</w>": 35339,
  "darrell</w>": 32989,
  "darren</w>": 10696,
  "darrin</w>": 34295,
  "darryl</w>": 21134,
  "dars</w>": 28499,
  "darshana</w>": 34323,
  "dart": 37978,
  "dart</w>": 11810,
  "darted</w>": 6694,
  "darth</w>": 38482,
  "darting</w>": 11206,
  "darts</w>": 16879,
  "darwin</w>": 29127,
  "dary</w>": 9239,
  "daryl</w>": 25153,
  "das": 17563,
  "das</w>": 16347,
  "dasen</w>": 21085,
  "dash": 14587,
  "dash</w>": 9241,
  "dashboard</w>": 16276,
  "dashe</w>": 36404,
  "dashed</w>": 9027,
  "dashes</w>": 37580,
  "dashing</w>": 16091,
  "dass</w>": 15940,
  "dastou</w>": 28251,
  "dat": 5002,
  "dat</w>": 17580,
  "data</w>": 7200,
  "datab": 16868,
  "database</w>": 19404,
  "databases</w>": 39081,
  "date</w>": 2652,
  "dated</w>": 6301,
  "dates</w>": 7496,
  "dating</w>": 5578,
  "dation</w>": 6896,
  "dations</w>": 14104,
  "datory</w>": 25110,
  "dau": 2221,
  "daughter</w>": 2332,
  "daughters</w>": 9434,
  "daun": 20871,
  "daunted</w>": 30709,
  "daunting</w>": 24441,
[...]
